{
  ":flutter": 17202,
  "539": 23033,
  "(Guid": 40112,
  "innerText": 56117,
  "ĠHoch": 68875,
  ".sendStatus": 72380,
  "online": 26732,
  "Ġimread": 83519,
  "RestController": 41152,
  "å¹³åı°": 106505,
  "Ġinjector": 63743,
  "Ġrogue": 54991,
  "Ġcocktails": 58076,
  "ëī´": 109687,
  "ĠRad": 21254,
  "ä»": 6271,
  "('.": 4389,
  "_item": 5752,
  "usi": 53913,
  "ĠÐ´Ð¾Ð±Ð°Ð²Ð¸ÑĤÑĮ": 123776,
  "ÑĨÑĸÐ²": 102976,
  "Ġç´": 105490,
  "_bit": 14323,
  "ĠPirates": 53505,
  "Ġjt": 92176,
  "(Number": 44099,
  "mith": 44774,
  "ÏĥÎ¼Î±": 118893,
  "å±ĭ": 102571,
  "ëĲ": 33943,
  "Israeli": 99224,
  "Ġtsp": 39020,
  "ĠfontWithName": 98218,
  "ĠJako": 123397,
  "would": 41450,
  "Ġnossa": 77839,
  "à¤®à¤ķ": 121427,
  "Ġçİ©å®¶": 123489,
  "ÑĥÐ±Ð»Ð¸": 108687,
  "Ġì¢": 66799,
  "Ġsizable": 79198,
  "Ġdva": 107890,
  "Skip": 36234,
  "_FE": 44407,
  "ÑģÑĤÐ²ÐµÐ½Ð½Ð¾Ðµ": 118427,
  "Es": 17812,
  "ĠDruid": 73735,
  "ĠsaÄŁlam": 116355,
  "ĠFEATURES": 94362,
  "ĠPagination": 45998,
  "ĠÃĶ": 111667,
  "Ġdial": 28960,
  "ĠRo": 12093,
  "otropic": 79432,
  "Ġattitudes": 33726,
  ".UPDATE": 66473,
  "Ġcompanies": 5220,
  "ä¹Ł": 75863,
  "ĠalÄ±r": 112704,
  "Ġacad": 10623,
  "Ġà¤ķà¤Ń": 111115,
  "Ġlattice": 55372,
  "Assoc": 99728,
  "ĠÐľÐµÑģÑĤÐ¾": 122701,
  "ĠÑĥÑģÑĤÐ°Ð½Ð¾Ð²ÐºÐ¸": 124239,
  "Ġpoly": 10062,
  "ĉĉ": 298,
  "Ð¸Ð¿Ð»Ð¾Ð¼": 125495,
  "ĠAllan": 61325,
  "ifax": 54717,
  "Ġrte": 78491,
  "ÏĩÏİ": 125320,
  "ĠResolution": 38216,
  "ediÄŁi": 118722,
  "(operation": 53447,
  "<ArrayList": 72335,
  "+++": 63830,
  "Review": 19997,
  "ĠØ®Ø´Ú©": 127415,
  "ObjectName": 38848,
  "Ġjustification": 42535,
  "Ġ\"*.": 60228,
  "èį": 76698,
  "ÂŃn": 127552,
  ".AddWithValue": 24698,
  "ĠAirways": 70502,
  "stdin": 52702,
  "Ġmuestra": 71687,
  "ilestone": 94128,
  "ï¼Ľ": 26016,
  "Ġwriter": 7061,
  "Ġemails": 14633,
  "ĠCert": 15663,
  "_low": 24701,
  "tanggal": 49799,
  "ĠUmb": 67059,
  "æ°£": 107895,
  "OSE": 76734,
  "pee": 62598,
  "\")+": 71429,
  "istrates": 94200,
  "(of": 28125,
  "ToFit": 74042,
  "Ġbegins": 12302,
  "Ġë¥": 112045,
  ".MaxLength": 71192,
  ">(),Ċ": 66866,
  "ĠmÃ¼ssen": 48927,
  ".localScale": 46833,
  ".Abstract": 38440,
  "ĠDemocr": 6384,
  "Ġconsequently": 52394,
  "_PC": 40897,
  "jdbc": 53232,
  "Dic": 45645,
  "lags": 23698,
  "uf": 1739,
  "ĠgiÃłnh": 125170,
  "}.${": 78297,
  "oteca": 65490,
  "uid": 2480,
  "Ø§Øª": 48732,
  ".timeline": 92023,
  "erc": 3035,
  "Ġ?\";Ċ": 65353,
  "ĠHardcover": 98627,
  "ĠInquiry": 66802,
  "ovanÃ©ho": 120023,
  "otify": 38353,
  "ĠÐ·Ð°Ð¿": 30889,
  ".BackgroundImage": 36432,
  "}});Ċ": 72330,
  "jections": 25593,
  "Ġhepat": 58259,
  "ĠConfiguration": 12499,
  "ĠOrthodox": 46273,
  "unset": 37904,
  "izacao": 98290,
  "Ġ[âĢ¦]...Ċ": 124585,
  "laws": 68637,
  "Ð¾Ð²ÑĭÑħ": 110044,
  "Î¡Îĳ": 109192,
  "pipes": 87820,
  "Ġedge": 6964,
  ".Draw": 17811,
  "Ġchoices": 11709,
  "atron": 81189,
  "Interceptor": 33886,
  "åŃ¦çĶŁ": 106718,
  "Ġclashes": 52610,
  "Ġincontri": 15733,
  "dek": 77373,
  "Ġpragmatic": 75336,
  "Ġmx": 14961,
  "Tip": 16394,
  "Goods": 47558,
  "<textarea": 67364,
  "ĠAudience": 66000,
  "Ġregistrazione": 96935,
  "/image": 24234,
  "Ġpu": 18757,
  "ĠTomato": 94091,
  ".by": 19544,
  "Variable": 7983,
  "lovak": 87210,
  "Ġfocal": 42199,
  "ĠHumanity": 83695,
  "Ð±Ð¾ÑĢÐ°ÑĤÐ¾ÑĢ": 123051,
  "tÄ±r": 100596,
  "ĠKeto": 77445,
  "Ġmarkup": 41851,
  "ien": 3675,
  "Unmount": 60639,
  "ilos": 90419,
  "ĠTXT": 73529,
  "âĢĻn": 61131,
  "Ġqint": 85817,
  "Ġquotient": 75862,
  "Ġæ¿": 122266,
  "_arr": 11459,
  "post": 2252,
  "Ġkcal": 96103,
  "Ġger": 17684,
  "à¸§à¸¥": 119115,
  "Dump": 52156,
  "oves": 10296,
  "ĠQueen": 16657,
  "IG": 1953,
  "_ABC": 92504,
  "·": 115,
  ".start": 5069,
  "_clr": 99580,
  "Ġpopulation": 7187,
  "Ġvibrator": 61824,
  "ĠÑĥÐ¶Ðµ": 91877,
  "ultz": 55526,
  "suit": 73140,
  "Ġbraces": 60291,
  "ĠÐ´ÑĸÑı": 104215,
  "Ġhp": 21280,
  "ounces": 31044,
  "à¸Ľà¸£à¸°à¹Ģà¸Ĺà¸¨à¹Ħà¸Ĺà¸¢": 119556,
  "ĠTri": 12639,
  "Ġfabulous": 35631,
  "Ø²Ø´": 103916,
  "Ø¨Ø±Ø¯": 105511,
  "irk": 14468,
  "Ġembodiment": 49497,
  "Ġgame": 1847,
  "precation": 70693,
  "ĠÃ¡p": 104752,
  ".setCellValue": 64986,
  "Ġdwell": 44935,
  "_framework": 28665,
  "ĠcÃ¡c": 79328,
  "ĉproperties": 88028,
  "ĠKurdistan": 80044,
  ">Contact": 86480,
  "å¤®": 106442,
  "Ġmont": 20605,
  "Ġselect": 3373,
  "alue": 542,
  "__':Ċ": 16575,
  "ÑĢÑĸÐ¿": 119984,
  "Tro": 93555,
  "added": 17249,
  "prÃ¡v": 103560,
  "ç¬": 17925,
  "ãģ«ãģ¦": 126250,
  "ĠForty": 86043,
  "Ġcredible": 43010,
  "Ġtá»§": 117867,
  "[maxn": 74931,
  "Ġë²Īì§¸": 122042,
  "Ġresilient": 59780,
  "490": 18518,
  "Ġaval": 41635,
  "ĠSerena": 92090,
  "ĠTV": 6007,
  "ĠPou": 90123,
  ".Web": 6609,
  "ladu": 113328,
  "Ġcleanly": 97975,
  "unique": 9782,
  "Ġglitter": 55251,
  "ÙĦØ·": 120334,
  "Ġsits": 23874,
  "Ø§Ø¬Ø§Øª": 125342,
  "ersist": 5082,
  "ĠRebels": 90435,
  "Î»Î¿": 100586,
  "ĠpÅĻÃŃ": 100578,
  "(chr": 76807,
  "Ġzoom": 15932,
  "Ġquen": 118812,
  ",\"": 1359,
  ":],": 46599,
  "ManyToOne": 44194,
  "ĠCraw": 44766,
  "ÐłÐ°Ð·": 115842,
  "Ġrezerv": 116555,
  ",null": 23945,
  "Anti": 33749,
  "techn": 26522,
  "ĠAnxiety": 81469,
  "ĠØ¯Ø§Ø´ØªÙĨØ¯": 126599,
  "olley": 35619,
  "iscing": 53854,
  "(vec": 26674,
  ",Th": 70980,
  "Ġgrave": 25165,
  "Ġhol": 24429,
  "BMI": 96626,
  "/public": 22816,
  "Ġà¤¹à¤Ł": 122384,
  "Ġduyg": 122346,
  "Ġà¸łà¸²à¸©": 122328,
  "Ġstaunch": 82721,
  "_dist": 16416,
  "ussen": 44061,
  "_leave": 63766,
  "Ġmouse": 8814,
  "ICATION": 12016,
  "ÙĥÙĪØ±": 118246,
  "ĠÑĥÐ´Ð°": 117879,
  "Visited": 76595,
  "levant": 8532,
  "Ú¯Ø§Ø¨": 126873,
  "wich": 17316,
  "ĠÐ½Ð¾Ð¼": 109399,
  "ĠinitState": 52238,
  "appy": 11392,
  "_offset": 7062,
  "Ġsaturn": 85789,
  "Ð¾Ð´Ñĸ": 103901,
  "Ġproves": 36862,
  "-frame": 47867,
  "_('": 75778,
  "ĉĉĉĉčĊ": 20254,
  "ĠÏĩÏģÎ®ÏĥÎ·": 126793,
  "Reuse": 39181,
  "ĉthat": 64442,
  "terdam": 51229,
  "ĉcard": 81184,
  "ĠEditor": 12865,
  "_ts": 26075,
  "Degree": 59867,
  "_MAP": 16705,
  "Ġpris": 52579,
  "ĠFirstName": 50567,
  ".EditorButton": 83878,
  "Ð½ÑıÑı": 110089,
  "<|reserved_special_token_201|>": 128209,
  "Ġregex": 20791,
  "acebook": 4598,
  "Ġ----------Ċ": 31423,
  "Ġdecorate": 57681,
  "Ġetree": 67755,
  "Ġbrass": 37138,
  "Ġmarching": 62198,
  "Ġdissatisfaction": 97894,
  "OG": 12501,
  "lixir": 98872,
  "Ġpea": 98763,
  "Ġproti": 105040,
  "<context": 35628,
  "Inter": 3386,
  ".Expr": 94367,
  "ĠMenschen": 43886,
  "Ġsigma": 20868,
  "ĠarÅŁiv": 109951,
  "æµĭ": 104133,
  "implicitly": 88395,
  "ĠgetY": 76380,
  "Ġming": 73259,
  "_dual": 97872,
  "_pago": 80279,
  "Ġfatally": 72461,
  "Ġdisregard": 58817,
  "ĠEncoding": 30430,
  "_closed": 45797,
  "rant": 35534,
  "Attachments": 76840,
  "Ð¾Ð²Ð¾ÑĢ": 101430,
  "ä¸Ģäºº": 122485,
  "ĠYosemite": 95927,
  "atha": 66826,
  "ĠĠĠĠĠĠĠĠĠĠĠĠĠĠĠĠĠĠĊ": 37677,
  "ĉdie": 38004,
  "abaj": 80084,
  "Ġbb": 16927,
  "Ġunearth": 79675,
  "ÙĳØ§": 120739,
  "åħħ": 105843,
  "AGENT": 91415,
  "ICIAL": 84004,
  "IMIT": 8236,
  "atinum": 30190,
  "Ġcumbersome": 96190,
  "ĠÐ²Ð¸ÑıÐ²": 114040,
  "':''": 78662,
  "dir": 3826,
  "ä¼": 17885,
  "Ġasses": 80140,
  "ÛĮÚ©ÛĮ": 103263,
  "Ø±ÙĪØ¹": 107426,
  "ĠmodelName": 88131,
  "ĠTes": 23971,
  "ĠCRT": 96134,
  "THIS": 37012,
  "åĪĹè¡¨": 45277,
  "-generation": 43927,
  "spotify": 88488,
  "ibilit": 40948,
  "çĬ¬": 123044,
  "-prefix": 68281,
  "ĠSach": 38437,
  "Ġ}:": 36474,
  "ĠNavbar": 39409,
  ".PrimaryKey": 48563,
  "Ġmenc": 52618,
  "icers": 36080,
  "oáº¡i": 103139,
  "<|reserved_special_token_58|>": 128066,
  "_tracks": 68053,
  "/octet": 80932,
  ":date": 94363,
  "Angular": 69459,
  "Initialization": 63028,
  "Ġconsolation": 99958,
  "ĠBless": 44361,
  "Ġmoder": 13606,
  "ĠFileStream": 51871,
  "ĉImGui": 60535,
  "Ġstop": 3009,
  "=<?": 22400,
  "Ġentertained": 65550,
  "Ġngoáº¡i": 109621,
  "æª¢": 121623,
  "ĠCAMERA": 67898,
  ".Range": 25818,
  "à¸Ħà¸Ńà¸¡": 124438,
  "Ġunivers": 11159,
  "ÑĢÑĥÐ·": 67024,
  "Ġreplicated": 72480,
  "Ġpersistent": 26048,
  "ĠMessageBoxButton": 98703,
  "Ġdiscarded": 44310,
  "IRO": 68884,
  "Style": 2377,
  "(schema": 43835,
  "[MAXN": 79608,
  "Ġ};": 20667,
  "Ġbaking": 28915,
  "-local": 41160,
  "ĠReeves": 82852,
  "Ġsoftball": 96368,
  "ÙĬÙĨØ§Øª": 125266,
  "_scripts": 36889,
  "_ready": 36556,
  "andy": 13634,
  "rect": 2921,
  "Ġcoef": 56633,
  "/lo": 107861,
  "Î¼Î±ÏĦÎ¿ÏĤ": 106601,
  "ãĤīãĤĮãģ¦ãģĦãĤĭ": 125398,
  "lig": 7864,
  "ĠÄįek": 111537,
  "aurant": 14671,
  "èĥ¡": 114939,
  "Position": 3897,
  "Ġviolin": 63137,
  "ëł¸": 105543,
  ".orig": 69937,
  "ropic": 45036,
  "file": 1213,
  ",cljs": 96745,
  "Ġbtc": 87137,
  "wolf": 77330,
  "ĠScanner": 17613,
  "Ġroad": 5754,
  "ĠTRY": 79581,
  "Ġdistorted": 62236,
  "à¥ĭà¤¨": 101001,
  "ĠÐ¾Ð±ÑĢÐ°Ð·Ð¾Ð¼": 108849,
  ".btnDelete": 82774,
  "879": 25622,
  "-digit": 49442,
  "ĠWho": 10699,
  "ĠdidReceiveMemoryWarning": 39241,
  "ĠmÃ¡ximo": 76717,
  "ĉSet": 23004,
  "EO": 6903,
  "EObject": 83538,
  "ĠFormal": 80467,
  "Ġgroundwater": 72329,
  "Ġpregnancies": 82308,
  "Ġìķ¨": 127743,
  ".only": 27251,
  "ĠØ¯ÙĪØ¨Ø§Ø±Ùĩ": 127276,
  "è´¹çĶ¨": 127340,
  "âĢ³": 22308,
  "::Ċ": 50677,
  "ĠEmirates": 49801,
  "Ġtran": 24614,
  "Âłc": 117155,
  "ĠwxDefault": 84686,
  "Ġkvinn": 51073,
  "Ġsupern": 39887,
  "Ġsynonym": 74450,
  "á»Ľp": 106560,
  "Ġmarvelous": 81292,
  "_START": 13343,
  "Ġenabling": 28462,
  "(pair": 40244,
  "917": 24391,
  "Ġmembuat": 77334,
  "Ġpathogens": 78284,
  "');ĊĊ": 3840,
  "(LocalDate": 91798,
  "Ġkern": 83685,
  "ĠÐ¿ÑĢÐ¾Ð±Ð»ÐµÐ¼Ð°": 124274,
  "ÄŁen": 127007,
  "ĠÐŀÐ´Ð½Ð°Ðº": 122789,
  "eur": 12844,
  "Ġ`;Ċ": 65517,
  "Ġsanctuary": 51639,
  "ĠIl": 7695,
  "-product": 29745,
  "ÑĢÑĭ": 39103,
  "ĠjPanel": 19609,
  "Margin": 22421,
  "ĠhÃ¡": 43222,
  "erusform": 70316,
  "itur": 53030,
  "éĤ£éĩĮ": 123064,
  "',{'": 76786,
  "ĠEntered": 76075,
  "Ġartists": 13820,
  "_show": 15625,
  "\"><?=$": 57490,
  "_ser": 76961,
  "ĠÐ½Ð°Ð¿ÑĢÑı": 107252,
  "heatmap": 95161,
  "')}": 38907,
  "Ð»ÑĸÐ½": 112512,
  "Ġupgrades": 32714,
  "Interpolator": 77123,
  "Ġtit": 8305,
  "é¨ĵ": 111186,
  "Ġpositional": 68647,
  "ĠloÃłi": 104676,
  "ĠÐ·Ð²ÐµÑĢ": 108471,
  "Ġrebound": 42632,
  "_SETTING": 60055,
  "_scroll": 42507,
  "_SEQ": 51145,
  "à¥įà¤¶": 103696,
  "Ġupto": 81226,
  "ï¼¿ï¼¿": 100978,
  "Ġderivative": 32905,
  "ĠonClick": 5815,
  "ĠTÃ¼m": 116691,
  "Ġpasswd": 53137,
  "ĠBloom": 25517,
  "Ġcolon": 15235,
  "artial": 21564,
  "Ä±c": 74383,
  "Ġrefugee": 34267,
  "Ġadditions": 38314,
  ".End": 19080,
  "////////////////////////////////////////////////////////////////////////////////Ċ": 59969,
  "ĠçĤ¹": 112944,
  "Î³ÏģÎ±": 103105,
  ">N": 31110,
  ".SelectedItems": 92177,
  "Ø¶ÙĪ": 105235,
  "Ġcontractual": 76543,
  "Ub": 50668,
  "SYSTEM": 47587,
  "à¸ªà¸ĸà¸²à¸Ļà¸Ĺ": 123391,
  "ladÄ±k": 117071,
  "ĠConstruction": 24987,
  "ĠMSI": 68498,
  "Ġconse": 31025,
  "Ġstdin": 32469,
  "PullParser": 92402,
  ".weapon": 61527,
  "511": 18625,
  "ĉclass": 15854,
  "Ġapproves": 94930,
  ".about": 58063,
  "Playlist": 53681,
  ")=": 11992,
  "bson": 92823,
  "Ġdela": 90639,
  "Concurrency": 80711,
  "ÐµÐ¼": 10298,
  ".interfaces": 35559,
  "Ġrz": 54101,
  "ÙĪÙĦÙĬ": 121913,
  "Classifier": 34995,
  "ĠKashmir": 50280,
  "Ġspiritually": 88853,
  "Ont": 67403,
  "Ġsemua": 78597,
  ".jackson": 26811,
  "ÄįetnÄĽ": 109893,
  "Ġcosmic": 55801,
  "_ctl": 43991,
  "%A": 53685,
  "akt": 10114,
  "ĠEnemy": 31851,
  "à¥ģà¤¬à¤¹": 123890,
  ".commons": 18960,
  "ĠÙħØ¹Øª": 124746,
  "ciÃ³": 88200,
  "hib": 5923,
  "388": 19081,
  "ĠEventEmitter": 31104,
  "Ġrenting": 53327,
  "ĠValueEventListener": 99245,
  "Increases": 97450,
  "ÙİØ§ÙĦ": 110177,
  "device": 6239,
  "ĠLoginPage": 64511,
  "_i": 5431,
  "Next": 5971,
  ".Formatter": 97391,
  "udit": 34987,
  "Ġswallowing": 91747,
  "ĠÐ½Ð°ÑģÑĤÑĥÐ¿": 108075,
  "Ġinjury": 11134,
  "Ġë£": 124761,
  "ĠaVar": 94762,
  "ĠAz": 15757,
  "orado": 97855,
  "Ġ$$$": 98800,
  "ĠRFC": 40333,
  "Ġdistance": 6138,
  "Ġitems": 3673,
  "ĠMONTH": 59080,
  "ĠÐ¿ÑĸÐ´Ñģ": 123352,
  "RESP": 68883,
  "EATURE": 22072,
  "ÐŃ": 93311,
  "Ġçİ°": 118305,
  "Ð³Ð°ÑĢ": 112203,
  "ĠKab": 41536,
  "(newValue": 56286,
  "ysz": 73445,
  "æŃ©": 105564,
  "_VOL": 71515,
  "ÐµÐ²Ð¾Ð¹": 111441,
  "ĠImpact": 29680,
  "ĠEditors": 82886,
  "Ġbass": 22253,
  "Ġmend": 45876,
  "..ĊĊ": 15882,
  "Ġ},čĊ": 10080,
  "ĠÑĦÐ¾ÑĢ": 102798,
  "ĠAthe": 85937,
  "mx": 18577,
  "idir": 102051,
  "friends": 30562,
  "ĠReynolds": 46172,
  "Ġcháº¥t": 101417,
  "Relative": 29542,
  "+[": 70835,
  "olarity": 73627,
  "ĠDatum": 69559,
  "Ġauf": 7367,
  "Ġcross": 5425,
  "ëŀ¨": 107816,
  "ĠëĬĶ": 116630,
  "ourced": 54492,
  "_de": 2310,
  "Ġcampaigning": 55927,
  "ĠÙĪØ§ÙĦØªÙĬ": 120519,
  "EDURE": 84160,
  "ĠOwners": 40566,
  "-qu": 74801,
  "entity": 3069,
  "animations": 54027,
  ".coord": 75738,
  "tÄ±": 100463,
  "STAT": 23417,
  "ĠØ§ÙĦØ§Ø¹": 121297,
  "spell": 38755,
  "Ġíķľ": 62398,
  "Ľ°": 120388,
  "ivities": 43479,
  "ottenham": 50803,
  "ĠÐ²ÑĭÐ³Ð»ÑıÐ´": 124398,
  "ĠĠĠĠĊĠĠĠĠĊ": 9586,
  "BackgroundColor": 30646,
  "è®²": 108163,
  "Ġprincipals": 82139,
  "ĠstÅĻ": 117869,
  "ĠRegistro": 84737,
  "ĠkhÃŃ": 105256,
  "/big": 92036,
  "inish": 18675,
  "ĠNJ": 27816,
  "$route": 58812,
  "ĠShed": 95552,
  "acimiento": 55466,
  "Ġ******************************************************************************Ċ": 86885,
  ".sex": 74840,
  "ãģłãģķãģĦ": 70897,
  ".workflow": 73874,
  "ĠHarding": 97593,
  "ĠSTILL": 93350,
  "Ġbalances": 39954,
  "CATEGORY": 94127,
  "Ġbras": 46496,
  "Ġwill": 690,
  "áº§u": 92112,
  "ĠBak": 36769,
  ".hero": 64809,
  "ĠÐ·Ð°Ð¿Ð°Ñħ": 119755,
  "ĠØ¯Ø±Ø®ÙĪØ§Ø³Øª": 124202,
  "ØµÙĦ": 101729,
  "ĠFranÃ§ois": 85807,
  "Ryan": 49546,
  "ĉlock": 59971,
  "Ġolsa": 110746,
  ".getCmp": 75271,
  "paired": 77267,
  "ĠMove": 14903,
  "ĠÐºÑĥÑĢ": 105426,
  "ĠØ¥ÙĦØ§": 114506,
  "Ġyeme": 127559,
  "';Ċ": 1025,
  "ĠMonthly": 45434,
  "<|reserved_special_token_224|>": 128232,
  "'].\"</": 46585,
  "BY": 20507,
  "ĠMinuten": 81724,
  "Ġ(--": 58719,
  "ĠHarm": 92071,
  "Â¢": 57494,
  "ĠPANEL": 81124,
  "Ġintended": 10825,
  "lifting": 53003,
  "PERATURE": 88613,
  "opp": 4880,
  "Ġrevealed": 10675,
  "Ġimages": 5448,
  "__',": 88610,
  "ĠìĤ¼ìĦ±": 122851,
  "Ġ${(": 63167,
  "(withId": 97906,
  "Ġgraz": 51933,
  "serve": 13570,
  "Ð±Ð¾Ð²": 112209,
  "à¥¦": 105659,
  "ĉstack": 49327,
  "ĠExplore": 45152,
  "Ġtitan": 86612,
  "StyleSheet": 56332,
  "à¸¶à¸ĩ": 101775,
  ".CommandText": 40166,
  "Ġdeepest": 51621,
  ".long": 24414,
  "Ġritual": 28278,
  ".jsoup": 90498,
  "à¸±à¸ļà¸ľ": 112708,
  ".Import": 68375,
  ".metamodel": 66706,
  "Ġimplementing": 25976,
  "={": 1185,
  "Ð¼Ð°ÑĤ": 104510,
  "aman": 13005,
  "Ġsurg": 12274,
  "ĠayÄ±nda": 123328,
  "belongs": 81997,
  "ÙģØ³": 103741,
  "é¥": 104145,
  "ĠNGOs": 72614,
  "movies": 40520,
  "Ġmom": 3450,
  "Ġrgb": 18477,
  "è®¡ç®Ĺ": 112352,
  "Ġusted": 61395,
  "Ġìļ": 66822,
  "Ġserpent": 92942,
  "amba": 43008,
  "Ġrecommends": 40912,
  "CONDITION": 84786,
  "ĠkÃ½": 104047,
  "Ġhwnd": 53932,
  "Ġmoss": 78343,
  "-links": 47776,
  "ĠÄĲá»ĥ": 114157,
  "ĠMurray": 28253,
  "Ġdoby": 114044,
  "Î±Ïĥ": 102213,
  "Ġdryer": 47722,
  "Modification": 81895,
  "Ġcruis": 60197,
  "41": 3174,
  "cron": 70487,
  "Ġhazardous": 51024,
  "ĠÐ±ÐµÐ·Ð¾Ð¿Ð°ÑģÐ½Ð¾ÑģÑĤÐ¸": 125028,
  "ĠÑĦÐ¾ÑĢÐ¼ÑĥÐ²Ð°Ð½Ð½Ñı": 122233,
  "ĠUPS": 58146,
  "_rsp": 65481,
  ".Utilities": 47543,
  "ĠÏĦÎ·ÏĤ": 100661,
  "Ġbuff": 11783,
  "ĠÐ¼Ð°ÑĪÐ¸": 115393,
  "imports": 63988,
  "Ġdwind": 83222,
  "Ġissu": 53066,
  "Ġmisdemeanor": 59092,
  "ĠNONINFRINGEMENT": 29086,
  ".visitMethodInsn": 83456,
  "Ġtespit": 114120,
  "_yes": 60844,
  "Ġtackle": 22118,
  "ovie": 6461,
  "çľ¾": 121078,
  "ĠÐ±ÐµÐ»": 107687,
  "/month": 48417,
  "faculty": 86268,
  "ĠÐºÐ¾Ð¶Ð¸": 125884,
  "getPath": 51274,
  "blems": 22442,
  "Cube": 44429,
  "éĻĲå®ļ": 119379,
  "Atlas": 62216,
  "Ġattravers": 98407,
  "ĉpub": 63629,
  "Ġsaver": 61262,
  "ç½ĳåĿĢ": 110808,
  "_prev": 26647,
  "æ£ĢæŁ¥": 118686,
  "ÐµÐ¾": 121793,
  "ĠÐ²Ð¾Ð·Ð¼Ð¾Ð¶Ð½Ð¾": 118218,
  "DEFINE": 36972,
  "ivation": 40227,
  "ĠShock": 48083,
  "/logging": 81174,
  "Ġgladly": 71950,
  "Ġtrium": 92906,
  "ĠzprÃ¡vy": 124465,
  "çĤ": 100479,
  "ĠContacts": 47139,
  "Ġfile": 1052,
  "è£½ä½ľ": 124448,
  ".cols": 37121,
  "ĠÑĢÐ°Ð´ÑıÐ½": 127861,
  "SEQ": 38694,
  ".youtube": 20751,
  "arra": 80130,
  "icc": 48738,
  "paren": 42164,
  "ìľĦ": 82001,
  "><!--": 13604,
  "ĠNÃ¤": 86074,
  "ĠCast": 11514,
  "ĠMoscow": 23223,
  "ĠEnforcement": 44056,
  "agn": 3326,
  "Ġperspectives": 39555,
  "quer": 16339,
  "Ġhandwritten": 99489,
  "ĠÑģÑĤÐ°ÑĢÐ¸": 124227,
  "ĠADDRESS": 65528,
  "Ġmother": 6691,
  "ĠÐ²ÐµÑī": 112981,
  "_j": 5487,
  "Ġsex": 1877,
  "_events": 20269,
  ")!": 42395,
  "ê¸°ê°Ģ": 109957,
  ".websocket": 95215,
  "å¥½çļĦ": 110085,
  "ĠØªØ±": 101097,
  "Ġxls": 97678,
  "ĠHashSet": 19467,
  ".xlsx": 47938,
  "\"}": 9388,
  "orr": 17847,
  "ĠSIN": 71102,
  "Ã§Ã£o": 6027,
  "icia": 24985,
  "çļĨ": 112073,
  "aaS": 65710,
  "(drop": 62880,
  ":m": 31386,
  "ĠÅ¾e": 85874,
  "_SYN": 76762,
  "bairro": 59483,
  ":NSLayout": 90852,
  "é¢ľ": 124510,
  "ĠÙĦØ¯": 112159,
  "ĠsignIn": 52095,
  "åŃĲä¾Ľ": 127032,
  "Ġkillings": 48133,
  "Ġpregn": 12191,
  "ĠNich": 26755,
  "stuff": 58404,
  "Ġì½": 102370,
  "ĠWong": 56728,
  "QE": 99125,
  "éĻ·": 122632,
  "-supported": 88213,
  "ihilation": 92341,
  "Ġretrospective": 79929,
  "tit": 17330,
  "Translated": 82116,
  "ĠPulitzer": 96815,
  "ather": 1894,
  "uria": 75884,
  "Ġ})).": 71557,
  "TRACK": 89972,
  "æ±º": 104662,
  "Ġ*/}Ċ": 22390,
  "ĠHamas": 41741,
  ".maxcdn": 79602,
  "\"))Ċ": 5572,
  "ãĢĢãĢĢ": 44529,
  "ÂĬ": 113963,
  "Ġgrub": 74806,
  "Ġundertake": 49643,
  "éĿ¢ç§¯": 122858,
  "Ġrealistic": 26569,
  "áŀ¶": 86675,
  "ê´Ģê³Ħ": 126951,
  "Ġindications": 56190,
  "ĠmName": 97650,
  "ÏĥÏĦÎ±": 104761,
  "ĠMirror": 34954,
  "ĠÐ·Ð°Ð²ÑĤÑĢÐ°": 126224,
  "eturn": 2549,
  "ĠFIL": 64435,
  "_shadow": 54220,
  "uggestions": 38982,
  "<|reserved_special_token_109|>": 128117,
  "Ġcopyrighted": 59713,
  "ĠÙħØ§ÙĬÙĪ": 119304,
  "Ġneue": 39483,
  "&nbsp": 28293,
  "Ġformats": 20447,
  "ĠBread": 50141,
  "Ġtanks": 26951,
  "Ð¾Ð»ÑĮÐ·": 28647,
  ".utf": 91005,
  ".nextElement": 79611,
  "Ġmemoria": 72427,
  "_removed": 69348,
  "Ġadres": 66861,
  "ĠÎ¼ÎŃÏĩÏģÎ¹": 118907,
  "Suggestions": 99946,
  ".'<": 72212,
  "è¾ħ": 124781,
  "ĠBegin": 19110,
  "Ġhardwood": 51645,
  "KN": 17596,
  "ÑģÑĤÐ¸Ð½": 127218,
  "Ġ'..',": 89642,
  "_traffic": 91112,
  "userName": 29941,
  "AuthService": 91566,
  ".dx": 53091,
  "void": 1019,
  "ĠGradient": 54207,
  "Suite": 29100,
  "BOUND": 80851,
  "Ġexhib": 12532,
  "Ġierr": 54498,
  "-proof": 60267,
  "ientes": 27335,
  "èĤ¡ä»½æľīéĻĲåħ¬åı¸": 117042,
  "à¹Ģà¸Ħ": 101606,
  "Ġexclusively": 24121,
  "viÄį": 114335,
  "ĠsessionFactory": 71576,
  "Ġsrov": 123358,
  "Ġ'''ĊĊ": 45832,
  "FLICT": 80630,
  "kÃ¢n": 118241,
  "Ġproced": 7248,
  "_geometry": 58122,
  "ĠØ§ÙĦØ¹Ø±Ø¨ÙĬØ©": 110356,
  "<!--": 6499,
  "327": 13817,
  "\"}),Ċ": 68532,
  "(`Ċ": 62628,
  "-binding": 65500,
  "Ġbele": 71156,
  "=event": 96360,
  "].\"": 72066,
  "ĠWorkflow": 61273,
  "iedy": 82719,
  "Ġrisult": 89212,
  "ĠZhao": 70381,
  "Ġintuit": 97301,
  "à¥įà¤°à¤¹": 108590,
  ".secret": 55040,
  "unused": 25743,
  ".Shapes": 63267,
  "decrypt": 74395,
  "mc": 13183,
  "ptr": 3589,
  "_MULTI": 50894,
  "mask": 11508,
  "Ġingress": 79659,
  "ï¼īãĢĤ": 75376,
  "åįģåĪĨ": 114392,
  "Î¯ÏĦ": 112363,
  "INUE": 49871,
  "_samples": 18801,
  "ĠÐ¾Ð±ÑĢÐ°": 119290,
  "ãĥĩãĤ£ãĤ¢": 125380,
  "éĽ»è©±": 117384,
  "Ġashes": 67101,
  "liÄŁin": 120769,
  "_CSV": 97694,
  "ĠdobÄĽ": 108070,
  "asticsearch": 28891,
  "Ġreinforced": 49680,
  "(TypeError": 88067,
  "\\x": 3546,
  "Ġwounded": 28593,
  "anted": 7719,
  ".FirstOrDefault": 30720,
  "Patrick": 66320,
  "Ġà¹Ģà¸£": 104436,
  "_turn": 38374,
  "ĠtypingsSlinky": 60934,
  ".translatesAutoresizingMaskIntoConstraints": 63570,
  "iá»ĩc": 100684,
  "Ġcháº¯c": 109910,
  "anyl": 91014,
  "ĠShoot": 50366,
  "ĠAppeals": 48207,
  "Ġextraction": 33289,
  "Ġrestraining": 84393,
  "(e": 2069,
  "achs": 87973,
  "umb": 3635,
  "ĠELSE": 54026,
  "âĢĿ),": 56955,
  "ĠMov": 54385,
  "='\".$_": 81348,
  "ĠPul": 35962,
  "Ġreordered": 50132,
  "Ġsizing": 64101,
  "Ġarbitration": 54708,
  "bben": 37139,
  "-align": 9841,
  "IDA": 52271,
  ".Classes": 67424,
  "acters": 5090,
  "-Owned": 91152,
  "ĉassert": 7093,
  "Ġbeautiful": 6366,
  "ĠëĳĲ": 103405,
  ".Promise": 68912,
  "UIAlertView": 72568,
  "_step": 12212,
  ",\"\\": 43620,
  "ĠVill": 16959,
  "ãģ®": 16144,
  "ä¸įåĲĮ": 107653,
  "ĠPrince": 19912,
  "ĠMÃ©": 44031,
  "opies": 76641,
  "{/": 68778,
  "è®¢åįķ": 51510,
  "-pointer": 58789,
  "Ġkre": 82170,
  "Ġíķ´ìķ¼": 124157,
  "IBM": 68838,
  "uhe": 92647,
  ".SYSTEM": 83624,
  "pone": 82017,
  "ĠLah": 68542,
  "humidity": 94146,
  "Ġrf": 37126,
  "ĠØ¶ÙħÙĨ": 114910,
  "icker": 5327,
  "_SCREEN": 43499,
  "è¾Ľ": 115200,
  "ÃĬ": 107267,
  "á»¥": 51583,
  "_Utils": 92275,
  "Ġacceptance": 26586,
  "DIRECTORY": 93563,
  "DataType": 23482,
  "Ġpromote": 12192,
  "ĠpÅĻed": 100668,
  "ëłĩ": 104977,
  "ĠGenerated": 31588,
  "Ġgolf": 19665,
  "Ġvv": 57433,
  "planet": 51174,
  "Ġimpulses": 87633,
  "ĠkardeÅŁ": 113499,
  ".itemView": 90683,
  "_ENTRY": 23489,
  "ĠRating": 19767,
  "Ġbabes": 60600,
  "endtime": 91961,
  "-ver": 99156,
  ".ping": 99347,
  "Ġyeni": 99813,
  "cross": 29942,
  "inecraft": 12357,
  "lua": 28723,
  "Ġisland": 13218,
  "Ø¨Øª": 102120,
  "ĠÐłÐ¾ÑģÑģÐ¸Ð¹ÑģÐºÐ¾Ð¹": 111574,
  "ãģ«ãģ¨": 125030,
  "Ġserviced": 81223,
  "<|reserved_special_token_183|>": 128191,
  "ĠLam": 33794,
  "ãĤ²": 105621,
  "ĠSevent": 78318,
  ".band": 75339,
  "Ġ)čĊ": 8786,
  "Ġsnprintf": 37546,
  "Ġyoungest": 39637,
  "scar": 25529,
  "holders": 17075,
  "ĠBethlehem": 96058,
  "interp": 64821,
  "ĠSTATUS": 24975,
  "Ġdisciples": 49260,
  "Ġconstit": 9129,
  "ĠÙħØªÙĨ": 109123,
  "Ġèı²å¾ĭå®¾çĶ³åįļ": 119240,
  "ĠØ§ÙĦØ«Ø§ÙĨÙĬØ©": 121268,
  "plt": 9664,
  "Ð¾ÑĢÐ¼": 32330,
  "Ġclandest": 93657,
  "(im": 26163,
  "/widget": 34436,
  "Ð¾Ð²Ð°ÑĤÐµÐ»ÑĮ": 112520,
  "Macro": 61275,
  "ÏĦÎµÎ¹": 115751,
  ")...": 40125,
  "Ġundermine": 43047,
  "ãģ¾ãģ§": 103296,
  "_TASK": 27412,
  "Ġ'": 364,
  "_FUNCTIONS": 96584,
  "):(": 78510,
  "avity": 11980,
  "åĪĽæĸ°": 122705,
  "(logits": 92199,
  "Ġdest": 3281,
  "ĠÐ¿ÑĢÐ¸Ð·Ð½Ð°ÑĩÐµÐ½Ð½Ñı": 127965,
  "Ġmattresses": 92053,
  "labs": 71371,
  "Percentage": 37267,
  "rying": 28609,
  "_argument": 9202,
  "\"/>ĊĊ": 74430,
  "cef": 66141,
  "qml": 84712,
  "ADR": 97573,
  "ãģĿãģ®": 58426,
  "emaakt": 94227,
  ".onStart": 80434,
  "ĠSuperintendent": 68984,
  "Ġskeptic": 55950,
  "à¸±à¹Ī": 101547,
  "ĠÐºÐ°Ð½": 106568,
  "ĠNz": 99792,
  "Speed": 11303,
  "ĠIntervention": 71678,
  "first": 3983,
  "Î¿ÏįÎ½": 107676,
  "Ġà¤¸à¤¦": 109528,
  "ĠRom": 12036,
  "æļ®": 127331,
  ".Stat": 54519,
  "ĠDÃ¼z": 123449,
  "ĠLW": 56841,
  "Ġjin": 102309,
  "ĠMsg": 25183,
  ".Pool": 90801,
  "odd": 14898,
  "ĠåĪ": 20033,
  "Ġbars": 16283,
  "BUM": 84567,
  "ĠDisclosure": 78354,
  "Ġexited": 52383,
  ".joda": 50368,
  "jac": 87231,
  "ĠÐ¿Ð¾ÑĢÑĥÑĪÐµÐ½Ð½Ñı": 122038,
  "(OpCodes": 85264,
  "ĠÄĲÃło": 125070,
  "/browse": 91381,
  "ÙĪØº": 121974,
  "Initial": 6475,
  "otence": 98660,
  "ĠTEM": 76770,
  "_twitter": 84438,
  "hound": 76196,
  "ĠdÃ¼ÅŁÃ¼nc": 121671,
  "Ġadaptor": 93041,
  "uclear": 9834,
  "Ġoffensive": 15538,
  "\\Module": 83780,
  ".RequestParam": 79162,
  "Ġrestored": 28101,
  "ĠÙħØ¹ÙħÙĪÙĦØ§": 122444,
  "PB": 41737,
  "clients": 32969,
  "dete": 122221,
  "ĠConf": 15323,
  "Ġstaged": 51157,
  "Ġfacade": 62716,
  "ĠTy": 14221,
  "éĻ£": 123717,
  "Ġcoarse": 50347,
  ").": 570,
  "Ă": 190,
  ".fire": 23451,
  "IQUE": 40770,
  "_sparse": 72223,
  "Ġåľĭ": 113575,
  "inspect": 83154,
  ".createdAt": 66721,
  "#a": 14213,
  "à¤¿à¤¦": 102557,
  ">Z": 64516,
  ")NULL": 85695,
  "#================================================================": 73104,
  "Ġapologise": 82485,
  "ĠForms": 24485,
  "Ġbisexual": 56832,
  "Ġsoru": 111111,
  "Ġ[âĢ¦]Ċ": 126459,
  "WM": 15565,
  "aight": 7538,
  "ĠäºĨ": 116148,
  "ÐµÑĤÑĮÑģÑı": 109559,
  "Ġè¯·æ±Ĥ": 81976,
  "policy": 35890,
  "Ġcompel": 83173,
  "ĠÑģÐ¿Ð¸ÑģÐ¾Ðº": 74432,
  "OOSE": 84340,
  "åĨĽ": 103626,
  "Ġ()Ċ": 12957,
  "lÄ±ÄŁÄ±": 102320,
  "à¥Ĥ": 100295,
  "Ġra": 15473,
  "']);čĊ": 26727,
  "ĠGitHub": 33195,
  "_MM": 48057,
  "raw": 1059,
  "busy": 79567,
  "åº¦": 27479,
  "FirstName": 27682,
  "(IO": 71801,
  "íĥģ": 108561,
  "();++": 85070,
  "ymbol": 4089,
  "(my": 14267,
  "ĠLind": 28318,
  "_CI": 94907,
  "_loop": 17641,
  "Å¥": 75901,
  "ç§»": 60634,
  ".crm": 83744,
  "Small": 26375,
  "ãĥªãĥ³ãĤ¯": 116974,
  "ĠCapitals": 95384,
  "ĠDisaster": 73378,
  "Ġchai": 45181,
  "Ġfinger": 14654,
  "Ġpolitik": 109038,
  "antes": 15844,
  "ĠÐµÐº": 113350,
  "ĉwidget": 97225,
  "Ġburgl": 60271,
  "interactive": 38640,
  "ĠLace": 75239,
  "ĠØªÙĨØ¸ÛĮÙħ": 121897,
  "Ġcomps": 89373,
  "Ġgood": 1695,
  "inscription": 99646,
  "Å¯leÅ¾it": 127496,
  "Ġworkstation": 96991,
  "(lbl": 71591,
  "-step": 30308,
  "pread": 21376,
  "ublisher": 15536,
  "ĠPanthers": 45267,
  "Ð½ÑıÐµÑĤÑģÑı": 116697,
  "lab": 14717,
  "Ð¿Ð¸": 103289,
  "Ġsabah": 120897,
  "ĠÑģÑĤÐ¾Ð¸ÑĤ": 108657,
  "Ġ$ĊĊ": 85600,
  "âĢĿãĢĤ": 56907,
  "ä¼ģ": 98897,
  "ĠjLabel": 14179,
  "mgr": 49392,
  "ĠskuteÄį": 107439,
  "rom": 442,
  "intros": 95828,
  "arker": 13152,
  "(Throwable": 62613,
  "Äĩi": 96881,
  "ĠsÃ¼reÃ§": 112507,
  "ĠColon": 32042,
  "owany": 95891,
  "Chunk": 29404,
  "ĠHubb": 78693,
  "Ġunpl": 84945,
  "ĠDevil": 40301,
  "In": 644,
  "Ġëį¤íĶĦ": 114658,
  "(View": 8470,
  "Ġinvading": 83631,
  "ÏĥÎ±": 101994,
  "067": 27309,
  "Gui": 14044,
  "setParameter": 53104,
  "Ġearthquake": 38413,
  "ÑĥÐ²Ð°Ð½Ð½ÑıÐ¼": 117996,
  "Ġphá»ĳi": 108233,
  "Ġspoj": 106659,
  "_REASON": 73045,
  "?âĢĻ": 45258,
  "/display": 74429,
  "Ġtwenties": 97696,
  "andon": 11283,
  "Ġstoring": 28672,
  "ĠLod": 89040,
  "Ġtailored": 41891,
  "Empleado": 74805,
  "Ġquantidade": 64115,
  "(clicked": 66076,
  "moire": 97495,
  "ĠÐ³ÑĢ": 109382,
  "679": 25136,
  "Ġbá»©c": 118393,
  "pher": 29182,
  "ucceeded": 44905,
  "Ġancestors": 38618,
  "Ġping": 31098,
  "Ġth": 270,
  "ÑģÑĤÑĢÑĥÐºÑĤÐ¾ÑĢ": 89410,
  "íį¼": 106413,
  "ĠÎºÎ¹": 111172,
  "Began": 92679,
  "Ġanarchists": 93134,
  "ĠPROCUREMENT": 31432,
  "ĠDoch": 79121,
  "ĠTeams": 40713,
  "Ġenam": 82952,
  "Ġas": 439,
  "ĠDublin": 33977,
  "ĠÐ²Ð¾Ð·Ð²": 116409,
  "ĠZy": 87654,
  "ensibly": 70872,
  "Ġdá»¯": 109915,
  "affected": 32157,
  "Stand": 49833,
  "ÑĢÐ°Ð³": 115466,
  "ĠMilton": 58447,
  "ĠFINAL": 68059,
  "WebResponse": 92477,
  "URLException": 65785,
  "ÙĤÙĬÙĤ": 112205,
  "_lhs": 85384,
  "ĠMonica": 46844,
  "god": 40811,
  "Ġriders": 30803,
  "Ġsvm": 67411,
  "ĠKlopp": 94931,
  "Ġnargs": 52716,
  "/cpp": 89301,
  "Ġsuspects": 30861,
  ".last": 9288,
  "Ġapprentices": 72351,
  "Ġexpressly": 53611,
  "MediaType": 66100,
  "Rather": 65002,
  "Approval": 91207,
  "Î¼Î±ÏĦÎ±": 103215,
  "[var": 53837,
  "æķĻåŃ¦": 115237,
  "Ġaile": 123250,
  "alu": 38086,
  "Ġqry": 70060,
  "Ġë§ĲìĿ´": 123723,
  "Ġintimate": 32487,
  "emas": 35262,
  "(month": 45823,
  "typings": 86835,
  "121": 7994,
  "à¸Ńà¸¥": 102177,
  "airro": 38758,
  "hr": 4171,
  "ÃŃtulo": 51361,
  "CREATE": 23421,
  "Ġà¤ļà¤°": 114704,
  "_was": 92712,
  "_quote": 46336,
  "une": 2957,
  "Ġhemen": 107901,
  "ĠFinn": 35162,
  "ĠÐ¿ÑĢÐ¾ÑħÐ¾Ð´": 112753,
  "ÐµÐ½Ð½ÑĭÐµ": 105202,
  "ĠPOINTER": 79131,
  "Ġsparing": 96055,
  "Logs": 52153,
  "Ã¡lnÃŃch": 108700,
  "ĠMos": 12847,
  "__)": 19688,
  "Ġbanco": 53565,
  "_ENSURE": 83917,
  "enÃ©": 101526,
  "udi": 21178,
  "ĠTcl": 57591,
  "PERSON": 94283,
  "Ġãģ«": 106004,
  "JOB": 75979,
  "ieber": 61341,
  "_RUNTIME": 53298,
  "à¥įà¤°à¤ļ": 123650,
  "@RequestParam": 95420,
  "Okay": 33413,
  "ĠWhereas": 61695,
  "Ġà¤¨à¤¹": 100812,
  "_intro": 69620,
  "391": 19631,
  "[section": 90497,
  "Ġ'\".$": 28052,
  "âĢĻnun": 113600,
  "è¡Ģ": 104473,
  "ÑĥÐ±Ð»Ñĸ": 109042,
  "Disallow": 88954,
  "\">#": 87243,
  ".SubItems": 79900,
  "Ġinstant": 9888,
  "3": 18,
  "aler": 13412,
  "methodName": 59650,
  "ĠOUTER": 90775,
  "Ġnow": 1457,
  "Ġstatistically": 47952,
  "ĠPoints": 21387,
  "scripts": 20420,
  "ÎĻÎļÎĹ": 116017,
  "Ġscenic": 62081,
  "developers": 65405,
  "guest": 31277,
  "ĠLahore": 99189,
  "Ġinnovations": 46045,
  "ĠPrimitive": 52560,
  "eneration": 17699,
  "_ps": 27139,
  "ĠÐ¿ÐµÑĢÐµÑĪ": 127269,
  "ĠÐ¿Ð¾ÑĢÑıÐ´Ð¾Ðº": 120601,
  "Invoke": 18068,
  "Ġknowledge": 6677,
  "SEE": 49840,
  "ocup": 73225,
  "Ġfollowers": 20723,
  "Ġfoto": 26656,
  "(Math": 14764,
  "NTSTATUS": 92682,
  "ä¼ĺ": 91272,
  "Conn": 9900,
  ".snp": 64009,
  "]\",Ċ": 46116,
  "ĠORD": 70369,
  "Ġdeutschland": 93616,
  "ĠÑĢÑĭÐ±": 122172,
  "Ġcirc": 4319,
  "ĠÙĩØ¬": 123302,
  "Ġtá»±": 101781,
  "datepicker": 37363,
  "checker": 71055,
  "-.": 14863,
  "Ð¥": 102357,
  "Sections": 39222,
  "ÙĬÙĨÙĬ": 107880,
  "èĸĦ": 116213,
  "ĠCredential": 94479,
  "Î³ÏģÎ±ÏĨÎ®": 127458,
  "ĠBORDER": 85372,
  "Ġcinematic": 65765,
  "Expl": 45053,
  "ĠcreateSelector": 83472,
  "Ð»ÐºÐ¸": 113501,
  "ĠBanco": 77787,
  "Ġwerden": 12931,
  "-sheet": 90066,
  "(ai": 75192,
  ".AutoSizeMode": 84900,
  "ĠRevised": 67830,
  "Ġathe": 38914,
  "Â·Â·Â·Â·": 127971,
  "Ġmeiden": 84677,
  "Ġregeneration": 60517,
  "_listener": 47593,
  "Ġpostgres": 60926,
  "Ġhostage": 59468,
  "Ġlze": 107282,
  "ÄŁÄ±na": 120341,
  "TOOLS": 95032,
  "Ġpes": 18541,
  "omb": 2925,
  "Ġtighten": 67845,
  ".Toolbar": 65787,
  "Ġethereum": 85622,
  "Ġconte": 60716,
  "JC": 59467,
  "buckets": 93517,
  ".UndefOr": 33761,
  "ĠHard": 11481,
  ".nr": 91893,
  "getFile": 77695,
  "unks": 15655,
  "::_('": 36510,
  "???ĊĊ": 95621,
  "[field": 39740,
  "[tag": 81139,
  ".GREEN": 69796,
  "Kel": 85699,
  "Ġ}}": 3954,
  "ĠØªÛĮ": 116386,
  "Ġjab": 61164,
  "Ġê³ĦìĨį": 116338,
  "kubectl": 81071,
  "Ġwife": 7555,
  "Ġscr": 9406,
  "<boost": 81738,
  "_calibration": 100186,
  "_temp": 12033,
  "ĠkarÅŁ": 101336,
  "idas": 17449,
  "Ġnim": 46792,
  "ĠGP": 24618,
  "ĠtÄĥng": 102502,
  "olicit": 98148,
  "_KEY": 6738,
  "ĠPlay": 7199,
  ".shared": 18553,
  "ĠØ§ÙĦÙħØº": 109766,
  "547": 23215,
  "unnable": 83311,
  "les": 645,
  "mu": 15479,
  "ĠViewPager": 91285,
  "Ġcleanliness": 96391,
  "ĠØŃÚ©Ùħ": 127010,
  "EMBER": 79175,
  "[p": 11661,
  "Ġregret": 23023,
  "nable": 16649,
  "ĠPam": 44513,
  "quisition": 17647,
  "bullet": 40560,
  "+\"</": 44118,
  "ENTICATION": 93716,
  "(emp": 74844,
  "à¤¤à¤®": 124241,
  "ĠwhiteColor": 46381,
  "=\"\";čĊ": 69024,
  "Ð²Ð¸Ñĩ": 106000,
  "AL": 984,
  "ÏĨÎ¿": 109890,
  "Ġanxious": 38100,
  "ĠBrew": 21593,
  "ĠMedicare": 31822,
  "ĠCraig": 29517,
  "ierung": 37716,
  "ĠTutorial": 49107,
  "_greater": 99094,
  "Ġknowingly": 68113,
  "ĠThickness": 70501,
  "ighbours": 53217,
  "itez": 55745,
  "iceps": 75669,
  "ĠapÃ³s": 76181,
  "ĠCOD": 68501,
  "Todo": 25151,
  "Ġaliases": 41486,
  "ĉf": 1186,
  "ĠÄ°Åŀ": 124526,
  "Ġà¤«à¤°": 112872,
  "ĠãĥķãĤ¡": 122827,
  ".Errorf": 13380,
  ".appendChild": 12746,
  "à¸£à¸Ńà¸ļ": 117113,
  "\"]->": 78198,
  ";čĊčĊčĊčĊ": 87332,
  "niest": 85880,
  ",msg": 68863,
  "ĠiPad": 23067,
  "ampaign": 18666,
  "Ð½ÑĥÐ»Ð°": 106438,
  "æĵįä½ľ": 41190,
  ".DataGridViewColumnHeadersHeightSizeMode": 73303,
  "Ġsmartphone": 22234,
  "-mobile": 42179,
  "ĠØ§Ø¯Ø§Ø±Ùĩ": 123380,
  "à¤¿à¤": 43411,
  "Ġcartel": 80740,
  "ĠREQ": 79796,
  "Scores": 57036,
  "Ġthinking": 7422,
  "Ġswims": 81736,
  "==========": 44356,
  "_skb": 95586,
  "çĽ": 16555,
  "ĠBaÅŁkanÄ±": 109985,
  "=pk": 88285,
  "signal": 27720,
  "ÐŀÐ±": 74339,
  "ĠgetService": 86969,
  "ridged": 80228,
  "-front": 64726,
  "Caught": 91854,
  "Ġdist": 1612,
  "MAN": 23111,
  ".partner": 71205,
  ".qty": 82510,
  "ãģ®ä¸Ģ": 112028,
  "_restart": 70492,
  "-holder": 66509,
  "ĠÙĪÙĤ": 102791,
  ".StartsWith": 50879,
  "-schema": 80784,
  "?(:": 57982,
  "newInstance": 85136,
  "ĉmesh": 77145,
  "Ġpropensity": 95323,
  "_nums": 52975,
  "Ġspecifically": 11951,
  ".Ordinal": 55436,
  "ë¡ľëĬĶ": 126367,
  "Neo": 98957,
  "Ġgeral": 98992,
  "ĠÐļÐ°Ð½": 123289,
  "ĠFormats": 80448,
  "riere": 85567,
  "ĠØ§ÙĨÚ¯": 103514,
  "Nic": 58916,
  "ĠÐŁ": 23227,
  "_RD": 29794,
  "ĉĠĠĠĠĠĠĠĠĠĠĠĠĠĠĠĠ": 75012,
  "ĠCharacteristics": 85084,
  "Ġnormals": 54552,
  "Ġê³µê²©": 123119,
  ".Pin": 84039,
  "ĊĊĊĊĊĊĊĊĊĊĊĊĊĊĊĊĊĊĊĊĊĊĊĊĊĊĊĊĊĊĊĊ": 80183,
  "Ġdie": 2815,
  "(z": 13476,
  "394": 20077,
  "æŃ»": 102625,
  "ê±°": 93292,
  "(\"%": 4530,
  "ĠBITS": 92249,
  "ĠNeu": 45950,
  "(':')[": 92628,
  "èĤ¡ä»½": 110274,
  "ĠBoone": 91695,
  "--[": 92587,
  "ĠÑĸÐ½ÑĦÐ¾ÑĢÐ¼Ð°ÑĨÑĸÑĹ": 117866,
  "ĠDee": 56004,
  "ĠUniv": 67612,
  "_FLAGS": 31190,
  "Ġstrengthen": 20259,
  "ttl": 63958,
  "íĦ": 31055,
  "ÏģÎ¯Î¿Ïħ": 107479,
  "BACKGROUND": 82522,
  "Ġholdings": 58348,
  "Ġlobster": 80815,
  "_QUERY": 32685,
  "Ġretrie": 10992,
  "osloven": 114691,
  "quite": 84270,
  "/comment": 75080,
  "ĠkÃ¶k": 127995,
  "Ġthere": 1070,
  "ĠÚ¯Ø±Ùħ": 117655,
  "Ġgiant": 14880,
  "![Ċ": 91615,
  "à¸Ľà¸£à¸°à¹Ģà¸Ĺà¸¨": 105208,
  "ĠUnable": 42544,
  "Ġissuing": 43221,
  "ï¼Ĳ": 27113,
  "ENDING": 31979,
  "ĠINT": 9403,
  "enery": 90333,
  "ĠÎ³Îµ": 126024,
  "ĠÐ¿Ð¾ÑĤ": 81803,
  "ĠÐŁÐµÑĢ": 104222,
  "Db": 8153,
  "Finished": 25934,
  "gz": 47689,
  "ĠHolden": 87485,
  "ĠSync": 30037,
  "CONN": 74667,
  "Ġensl": 67548,
  "Ġvyu": 105280,
  "TRANSFER": 62476,
  "lymp": 14163,
  "ÐºÑĥÐ»Ñı": 126509,
  "ĠDenn": 72261,
  "Ġinvol": 4457,
  "_atom": 43392,
  "Ð®ÐĽ": 112570,
  "hya": 87323,
  "ĠĠĠĠĠĠĠĠĠĠĠĠĠĠĠĠĠĠĠĠĠĠĠĠĠĠĠĠĠĠĠĠĠĠĠĠĠĠĠĠĠĠĠĠĠĠĠĠĠĠĠĠĠĠĠĠĠĠ": 33778,
  "ĠTÃ´i": 121825,
  "874": 25822,
  "ĠMillennials": 97743,
  "ĠCONTENT": 36868,
  "illusion": 82262,
  "spÄĽ": 105152,
  "aÃ§": 101020,
  "ĠÐ²Ð¾Ð´Ð°": 120647,
  "ength": 1011,
  "ÑĩÐ¸ÑģÐ»": 124635,
  "Ġlá»Ļ": 116110,
  "_power": 21052,
  "Ġrecip": 25455,
  "ĠÑģÐ»ÑĥÑĩÐ°ÐµÐ²": 125680,
  "ĠDevils": 60054,
  "_glyph": 89803,
  "schools": 91756,
  "Ð¾ÑĢÑĸ": 119013,
  "á»©c": 96063,
  "Ġletras": 90458,
  "èĥŀ": 112506,
  "Ġlg": 27180,
  "Ð½ÐµÐ½": 108073,
  "ĠThoughts": 61399,
  "Ġpremium": 15193,
  "Ġrin": 54821,
  "ĠØ±ÙĬ": 111933,
  "Ġmonster": 18118,
  "Modal": 8240,
  "m": 76,
  "Ġskip": 10936,
  "_generic": 42332,
  "ĠãģĦ": 113202,
  "{}{Ċ": 68166,
  "_bank": 36833,
  "é»ŀ": 106341,
  "ĠÎłÎ¿Î»Î¹": 121911,
  "ĠAccounting": 45344,
  "Ġpotentially": 13893,
  "ĠBBC": 18588,
  "æ¯į": 103760,
  "Ġletzten": 68068,
  "ĠÐ¼Ð¸Ñģ": 115720,
  "-Feb": 94871,
  "Ġnecklace": 55547,
  "_PUS": 120585,
  "ĠÐ½ÐµÐ·": 104871,
  "ĠUnreal": 81019,
  "Ġdesde": 23553,
  "ibir": 83560,
  "ribly": 37852,
  "ĠHob": 37876,
  "uno": 16711,
  ".getUsername": 54452,
  "Ġrequester": 84684,
  ")((": 14699,
  "okoj": 122946,
  "(nodes": 39805,
  "nod": 35666,
  ".ActionBar": 92319,
  "Ġshack": 77390,
  "618": 21985,
  "ĉRTLI": 80154,
  "ĠHerman": 61338,
  "ĠWit": 72959,
  "nego": 53199,
  "Ġdefin": 36222,
  "ĠÑĦÑĸÐ½Ð°Ð½Ñģ": 125719,
  "à¸µà¸¢à¸Ķ": 110961,
  "ĠstatusBar": 91220,
  "Ġdomin": 11358,
  "Ġadjunct": 90695,
  "ÙħØ¨Ø±": 113544,
  "Ġcand": 39738,
  "Î¯": 55241,
  "ĠsÄ±ra": 108878,
  "Ġkut": 31699,
  "Ġpoi": 48027,
  "ĠiliÅŁkin": 109371,
  "ĠÑįÐºÑģÐ¿Ð»ÑĥÐ°ÑĤÐ°": 123171,
  "ront": 9598,
  "Ġupd": 80103,
  "ĠìĹ¬ê¸°": 116864,
  "QUEUE": 30045,
  "ĠÙħØ¹Ø±Ùģ": 110813,
  "Ġà¸ŀà¸£à¸°": 107460,
  "Ġoutage": 89229,
  "ĠLeben": 56497,
  "Alias": 23555,
  ".tail": 39811,
  "åıªè¦ģ": 120475,
  "Ġverd": 26742,
  "peria": 75199,
  "-shift": 91043,
  "ĠToni": 90402,
  "Ġbreakout": 63788,
  "Ġkomen": 82837,
  "ĠÃĩocuk": 119005,
  "Ġpinpoint": 67638,
  "Ġfiltered": 18797,
  "á»£i": 110555,
  "Ġcropping": 100037,
  "fail": 18910,
  "getattr": 82832,
  "ĠMaybe": 10926,
  "Ġrainy": 63857,
  "Ġstrike": 13471,
  "zzo": 46748,
  "ãģĭãĤīãģ®": 117758,
  "ĠHet": 34266,
  "luÄŁ": 110013,
  "(circle": 87254,
  "timeline": 50060,
  "_ix": 63786,
  "æ¹¾": 112827,
  "Ġvara": 63901,
  "asks": 4707,
  "ask": 1091,
  "Ġplagiarism": 84998,
  "Ġballot": 26938,
  "Chain": 19368,
  "arsers": 41588,
  "ĠUSE": 9645,
  "Ġadm": 14933,
  "ĠdziaÅĤ": 75381,
  "-id": 13193,
  "ĠBLUE": 56992,
  "ĠCabinets": 78489,
  "ĠWalter": 33305,
  ":function": 18418,
  "ìĿ´ë¹Ħ": 122304,
  "ĠInsight": 72071,
  "Minutes": 28820,
  ".Network": 31249,
  "Ġcic": 54877,
  "larÄ±nÄ±": 101488,
  "XÃ£": 80909,
  "gx": 61057,
  "Ġnáº±m": 110166,
  "Ġpione": 29943,
  "ĠcÃŃsa": 126928,
  "_Image": 47049,
  "_population": 75672,
  "ĠIb": 58597,
  "ĠThese": 4314,
  "Ġdescriptors": 48617,
  "ifle": 19636,
  "ĠÐºÑĸÐ¼": 121672,
  ".SetText": 93359,
  "ë²ķ": 101661,
  "Ġrequire": 1397,
  "ĠÑģÐ»Ð¾": 115396,
  "$čĊ": 82611,
  "ensely": 61132,
  "Ġbeyaz": 119772,
  "ÛĮÙģ": 104026,
  "åĪĺ": 113355,
  "ollywood": 14447,
  "strate": 71015,
  "ĠSens": 32252,
  "amines": 97081,
  "ÐºÐ¾Ð²Ð¾Ð³Ð¾": 113481,
  "_True": 94677,
  "ĠStewart": 29868,
  "Ġscientific": 12624,
  "Ġà¤ħà¤ĸ": 126710,
  "Ġropes": 65046,
  "uther": 26567,
  "åĳ½": 51609,
  "peech": 40686,
  "ãģ§ãģĻ": 38641,
  ".assertj": 86453,
  "Psi": 75715,
  "erdale": 73420,
  "Ġlosers": 68456,
  "æĿĳ": 101634,
  "ĠIris": 66821,
  "icap": 98450,
  "Ġoi": 75733,
  "_QU": 16734,
  "Ġ//#": 50880,
  ".Flow": 61832,
  "/tag": 77296,
  "_Version": 86317,
  "-threatening": 62999,
  "woman": 22803,
  "lazy": 50113,
  "rapped": 57389,
  "Ð½Ñİ": 101644,
  "èĩ¨": 122678,
  "ĠConversion": 43609,
  "Ġdownloaded": 24174,
  "ĠParan": 98384,
  "almart": 28050,
  ".Asset": 89261,
  "697": 25388,
  "Ġphenotype": 82423,
  "ĠColorado": 15745,
  "conte": 46452,
  "infeld": 99936,
  "sand": 92346,
  "ĠØ³Ø§Ø®ØªÙħØ§ÙĨ": 118692,
  "premium": 85694,
  "ĠChatColor": 80420,
  "ĠLOGGER": 29188,
  "Ġpsychotic": 94241,
  "æĹłæ³ķ": 110621,
  "_PB": 72656,
  ".\"[": 61046,
  "UT": 1406,
  "defgroup": 87129,
  "vÃŃc": 112174,
  "ĠArsenal": 33102,
  "ĠRomans": 49817,
  ".CreateIndex": 61216,
  "ĠSheets": 61572,
  "Ġthreads": 14906,
  "ĠØ§ÙĦØ±ÙĬØ§Ø¶": 110007,
  "uhl": 96274,
  "ĠØ±ÙĪØ¯": 113685,
  "Ġmulticast": 80634,
  "Ġplays": 11335,
  "Ġcomrades": 67128,
  "Ġregularly": 15870,
  "Ġbbc": 91726,
  "Ġaccents": 59570,
  "ĠÐ²Ð¸Ð½Ð°": 127455,
  "INCLUDE": 89462,
  "ĠLinked": 13415,
  "Ġcoppia": 83346,
  "ĠNewman": 56721,
  "³Øª": 100290,
  "idade": 9252,
  "ĠDISPATCH": 95681,
  "ÄįasÃŃ": 127484,
  "ĠonFocus": 87074,
  "(original": 40909,
  "SSERT": 7523,
  "ĠbÃ¶": 99271,
  "Coming": 57789,
  "cff": 58923,
  "ĠTrophy": 56204,
  "Ġtolik": 125489,
  "ĠÑĨÐµÑĢÐºÐ²Ð¸": 125031,
  "å¤©åłĤ": 122025,
  "metry": 33342,
  "ÐµÐ·": 32985,
  "ĠDrug": 26166,
  "ĠXC": 61442,
  "Ġsets": 7437,
  "ĠÑĢÐ°Ð¹": 102743,
  "Opens": 37871,
  "Ġcontinuous": 19815,
  "heure": 75876,
  "ĠpreferredStyle": 64537,
  "ĠMeat": 45965,
  "Ġobserves": 81299,
  "\",$": 18466,
  "ĠaddTo": 54517,
  "Ġë²ķ": 107849,
  "_miss": 68822,
  ")\".": 95110,
  "ĠLove": 10919,
  "FAILED": 38017,
  "ĊĠĠĠĠĊ": 7361,
  "ĠÐ¾ÑģÐ²ÑĸÑĤ": 122426,
  "Ġlieu": 39381,
  ".buffer": 25472,
  "Ġ///</": 95409,
  "Ġcrossorigin": 32001,
  "Ġenv": 6233,
  "DS": 6061,
  "cv": 13423,
  "Ġvacation": 20769,
  "å¼": 13870,
  "Ùª": 115699,
  "04": 2371,
  "Ġproduct": 2027,
  "modity": 52302,
  "<WebElement": 80485,
  "ìľ": 27433,
  "ÑĢÐ°Ð¶Ð´": 121193,
  "ĠFuse": 74615,
  "band": 7198,
  "plode": 71844,
  "Ð½ÑĸÐ¿": 123058,
  "Ġzug": 86011,
  ":])": 96949,
  "(theme": 58624,
  "Notification": 11445,
  ",A": 15381,
  "ãĢĤãģĿãģĹãģ¦": 124845,
  "ĠÑģÐºÐ¾Ð»ÑĮÐºÐ¾": 123005,
  "Ø¶Ø§ÙĨ": 118137,
  "ĠPin": 17929,
  "-fit": 50660,
  "ÐµÐ½Ð¸Ñİ": 102385,
  ",!": 77902,
  "_to": 2401,
  "ĠAd": 2467,
  "Ġvisto": 66518,
  "-yyyy": 76491,
  "817": 25528,
  "ÑĦÐ¾ÑĢÑĤ": 122516,
  "Ø¯ÙĪØ¯": 108872,
  "/The": 48848,
  "Core": 5501,
  "à¤¾à¤¨à¤ķ": 105977,
  "ĠCatch": 21603,
  "ĠLiberia": 84625,
  "à¤¿à¤·à¤¯": 120632,
  "Ġinterdisciplinary": 88419,
  "ÙĪÙĤØª": 113687,
  "Ġfc": 26644,
  "Ġmusician": 39844,
  "viso": 73549,
  "Ġdisposing": 24090,
  "Ġ'';": 37903,
  "blo": 39245,
  "-quote": 94029,
  "INU": 86033,
  "Ä°SÄ°": 124757,
  "interval": 29004,
  "Ġcrops": 31665,
  "ĠÑģÑĤÐ°Ð»Ð¾": 114779,
  "ĠInitializes": 32982,
  "ISTRATION": 61631,
  "ĠResearchers": 59250,
  "ickey": 76039,
  "ĠproductList": 98692,
  ".currentState": 70660,
  "CAT": 29296,
  "Ġelf": 41845,
  "%\";Ċ": 96770,
  "Answer": 16533,
  "_params": 6887,
  "ĠdidSelectRowAtIndexPath": 96707,
  "Ġunfolding": 33831,
  "Ġcancellation": 36935,
  "ëĶ°": 122165,
  "_qty": 35958,
  "Ship": 30724,
  "ÐµÐ»Ð¸Ðº": 110984,
  "ÂłÂłÂłÂłÂł": 109719,
  "Ġindicates": 15151,
  "Raised": 96014,
  "ĠæĲ": 126743,
  "-w": 2695,
  "ĠBloody": 94672,
  "Ġlub": 28445,
  "Robert": 35632,
  ".LinkedList": 55707,
  "Ð¸Ð»Ð°ÐºÑĤÐ¸": 122746,
  "ieving": 84446,
  "ĠmÃ¼ÅŁ": 108543,
  "Ġmartin": 96016,
  "_temperature": 54625,
  "Î»ÎŃÎ¿Î½": 125667,
  "ĠsÄ±rasÄ±nda": 111162,
  "âĢĮÙĩØ§": 101440,
  "Ġanimation": 10571,
  ".aspx": 25688,
  "rypton": 54636,
  "Dani": 95394,
  "ÐµÐºÑģ": 79288,
  "hesion": 59738,
  "unj": 70014,
  "Ġdistancia": 83409,
  "ĠĉĉĊ": 99307,
  "iek": 36107,
  "į°": 43002,
  "Ġannex": 54368,
  "Ġëĸ¨ìĸ´": 117885,
  "ç§ĳåŃ¦": 108396,
  "Ġdopo": 60294,
  "_SCL": 93415,
  "-answer": 96877,
  "_basic": 35829,
  "=\"@": 71241,
  "ĠÙħØ±Ø§Ø¬": 122433,
  ".cor": 18672,
  "Ġ(){Ċ": 41753,
  "ÙħØ³": 106657,
  "Ġhy": 6409,
  "ĠDietary": 83808,
  ".getFullYear": 41051,
  "dom": 5717,
  "Coll": 15623,
  "è£¡": 115556,
  "éķľ": 116979,
  "Ġapprove": 29251,
  "Ġbrunch": 70917,
  "Ġhonored": 39377,
  "ĠMater": 99408,
  "Ġmenggunakan": 81427,
  "Ġtyre": 74028,
  "Âłz": 111396,
  "ĠAssad": 38616,
  "Ġideology": 34649,
  "(msg": 8282,
  "ĠPL": 10528,
  "à¸Īà¸°à¹Ħà¸Ķ": 123091,
  "ĠASA": 89700,
  "Ġxpos": 75495,
  "Grammar": 98278,
  "ME": 7614,
  "iera": 26919,
  "ëłī": 117689,
  "Ġslav": 118490,
  "ĠÑĩÐ°ÑģÑĤÐ¸Ð½Ð°": 123732,
  "ork": 672,
  "ĠCreat": 18134,
  ":bold": 50822,
  "ĠMorse": 87339,
  "Ġevasion": 77832,
  "ĠÐ¿ÑĢÐ°Ð²Ð¸Ð»ÑĮ": 106668,
  "ÑģÑĤÐ¸ÐºÐ°": 119668,
  "cohol": 11353,
  "à¯ģ": 84298,
  "ĠTW": 36655,
  "Ġessence": 28591,
  "\"There": 25938,
  "Periph": 96465,
  "ĠDecay": 98386,
  "Ġdari": 25177,
  "_pressed": 47278,
  "Ġbracket": 32742,
  "lashes": 47645,
  "ĠosÃ³b": 94543,
  "ĠÅĵ": 99225,
  "mr": 21620,
  "Ġfiercely": 79045,
  "Ġmenn": 59827,
  "Ġemblem": 67374,
  "Ġtighter": 64062,
  "Hu": 82478,
  "ingham": 24125,
  "ĠHandbook": 49924,
  "][$": 25004,
  "Ġkla": 76986,
  "ĠTutor": 81719,
  "Ġfell": 11299,
  "ĠØ²ÙĬ": 113323,
  "ĠÙ¾ÛĮØ´ÙĨÙĩ": 121067,
  "<|reserved_special_token_204|>": 128212,
  "Ġ'+": 14226,
  "Ġtrauma": 30988,
  "ĠJoanna": 91162,
  "ĠCavaliers": 72956,
  "_PLACE": 83024,
  "Ġretro": 17189,
  "Ġspacer": 79949,
  "-opacity": 69159,
  "arge": 2812,
  "asting": 15067,
  "Ġasynchronously": 68881,
  "ĠSrc": 68784,
  "INGER": 77380,
  "Ġ}?>Ċ": 56656,
  "ĠëĮĢíĸī": 121893,
  "ĠPregn": 60747,
  "ĠØ¹ÙĦÙĬ": 104537,
  "Ġchanging": 10223,
  "Ġlongitude": 21155,
  "-null": 61441,
  "thresh": 95482,
  "ĠtrÃº": 122342,
  "tÄ±m": 107304,
  "ondon": 6610,
  "~~~~~~~~": 18368,
  "Ø§ÙĬØ¯": 111264,
  "terminate": 49161,
  "_include": 38978,
  "ĠQMessageBox": 42318,
  "ĠReleases": 62115,
  "Ġcontinuar": 72107,
  "Ġ''": 3436,
  "[image": 93926,
  "ĠArs": 73938,
  "Ġnerv": 20233,
  "ĠÑĥÐ¿Ð¾ÑĤÑĢÐµÐ±": 114960,
  ".sim": 29716,
  "_ne": 14250,
  "ĠPaÅŁa": 118239,
  "selectAll": 82573,
  "Ġboards": 21126,
  "Ġbosses": 42847,
  "Ġsubscribers": 31120,
  "åı": 5877,
  "Margins": 67557,
  "ĉĉĉĉĉĠĠĠ": 31517,
  "ĠarttÄ±r": 121558,
  "ĠØªØ¹Ø¯Ø§Ø¯": 108927,
  "YNAMIC": 44012,
  "\\Request": 14536,
  "ĠSalvation": 86785,
  "359": 19192,
  "Ġ~/": 42595,
  "1": 16,
  "ĠÙ¾ÛĮØ´ÛĮÙĨÙĩ": 125859,
  "-bar": 16150,
  "Ġoud": 78073,
  "(vis": 80697,
  "çĶ¨çļĦ": 116958,
  "Timestamp": 21479,
  "Ġenlarg": 41039,
  "uet": 14127,
  ".getIn": 77288,
  "Vehicle": 35702,
  "Ġcents": 31291,
  "PreparedStatement": 46505,
  "ĠÐ²ÑĭÑĢÐ°ÑīÐ¸": 127769,
  "')Ċ": 1329,
  "Ġmisses": 43394,
  "_action": 8090,
  "ĠÙħØªÙĪØ³Ø·": 115249,
  "Ġdiminishing": 84153,
  "ĠEf": 95189,
  "ì´Į": 112266,
  "ĠBillion": 66809,
  "ĠPetite": 88083,
  "Complete": 12833,
  "-chan": 78735,
  "ĠaccountId": 61543,
  "à¸´à¹ī": 104401,
  "æľ¬å½ĵãģ«": 126920,
  "Ġadmon": 83085,
  "panel": 7581,
  "ĠĠĠĠĠĠĠĠĠĠĠĠĠĠĠĠĠĠĠ": 504,
  "wiÄħz": 77269,
  "ppo": 40580,
  "ĠLake": 11940,
  "ĉĉčĊĉĉčĊ": 42049,
  "Ġfiberglass": 94311,
  "ÐºÐ°Ð¿": 125225,
  "Ġaccounts": 9815,
  "_dom": 36849,
  "Ġbiomass": 58758,
  "(DIS": 75424,
  "(pa": 79737,
  "ĠBuffer": 10525,
  "Ġpagination": 29595,
  "-Russian": 85135,
  "_label": 6234,
  "ĠCapac": 98203,
  "\"testing": 43197,
  "houses": 37841,
  "Esc": 37221,
  "Ã£": 3282,
  "ĠÐ¢Ð¸Ð¿": 125392,
  "Ð°Ð½ÑĤ": 103014,
  "ĠØ£ØºØ³Ø·Ø³": 122240,
  "ļĮ": 48479,
  "\"encoding": 43984,
  "321": 14423,
  "udio": 3310,
  "ä¸ºä»Ģä¹Ī": 113221,
  "ĠPreferred": 63603,
  "Ð¸Ð´ÐµÐ½ÑĤÐ°": 120633,
  "Gtk": 46203,
  "ĠSymposium": 74938,
  "ØªÙħØ¹": 117779,
  "ĠDaemon": 93336,
  "AES": 70268,
  "ĠHyper": 33832,
  "áº¾": 118376,
  "_plain": 42115,
  "asant": 15969,
  "lyn": 18499,
  "ilters": 8782,
  "')ĊĊĊĊ": 95241,
  "vyÅ¡Å¡ÃŃ": 113159,
  "ÑĢÑĥÑĩ": 109477,
  "idend": 69950,
  "\\Array": 77936,
  "Ġexhaust": 17960,
  "izace": 120312,
  "amak": 109605,
  "ipsis": 48502,
  "icons": 10899,
  "Ġusername": 6059,
  "_lambda": 52984,
  "ĠOVER": 36564,
  "Ġwhipping": 98622,
  "ĠFlame": 49957,
  "_catalog": 48410,
  "¬Ĥ": 120912,
  "<|reserved_special_token_41|>": 128049,
  "ï¾": 69505,
  "Ġeget": 70763,
  "_consumer": 75069,
  "ĠGad": 72042,
  "ĠOD": 53832,
  "CharCode": 64963,
  "Ġalternatives": 27548,
  "Which": 23956,
  "ĠitemView": 28988,
  "Ġcarpet": 28954,
  "[__": 93247,
  "uvo": 94563,
  "à¹īà¸Ńà¸ĩà¸ģà¸²à¸£": 110900,
  "Disappear": 63955,
  "Ð¸": 1840,
  "Ġstren": 93319,
  "ĠrÅ¯znÃ©": 122717,
  "iationException": 75127,
  "Ġenvelop": 54285,
  "__(*": 69106,
  "ĠUnion": 9323,
  "Ġzeroes": 98543,
  "ÏĥÎº": 118644,
  ".Åŀ": 120112,
  "à¥ĭà¤°": 101282,
  "NÄ°": 119805,
  "Ġstrokes": 53572,
  "ĠØ§ÙĦØ«": 102432,
  "Ġtáº¡i": 100683,
  "Arn": 59431,
  "_Id": 22304,
  "Ġcharset": 11878,
  ":<?": 90571,
  "236": 14087,
  "ÑĸÑĤÑĮ": 113471,
  "ĠMec": 115527,
  "BE": 11855,
  "ĠÑĢÐ°ÑģÑĤÐµÐ½Ð¸Ñı": 113615,
  "ĠÑĦÐ¸Ð½": 110867,
  "ĠÑĩÐ¾Ð»Ð¾Ð²": 108043,
  "ĠØ§ÙĦÙĪØµ": 125803,
  ".hex": 46739,
  "ĠBoulevard": 48540,
  ".navCtrl": 83600,
  "Ġê²°ê³¼": 99901,
  "ĠÐ¾ÐºÑĤ": 115401,
  "ĠBorrow": 79047,
  "Tac": 80680,
  "nou": 100738,
  "Ø§ÛĮÙĨØ¯": 121812,
  "ĠGrey": 26769,
  "Restore": 57384,
  "Î¯ÏĥÏī": 127565,
  "ĠSamantha": 63908,
  "Cre": 10987,
  "ĠPlatz": 73155,
  ":čĊ": 2904,
  ".DB": 23353,
  "Ġ--------Ċ": 90238,
  "(big": 76716,
  "ĠVÃ¡c": 116746,
  "Ġsecretly": 42839,
  "Ġ--------------------------------------------------------------------------Ċ": 99042,
  "setFlash": 63489,
  "Ġstringify": 84266,
  ".Q": 10208,
  "ĠWes": 37476,
  "Ġverbally": 85207,
  "Ġìĭľìŀĳ": 94821,
  "toggleClass": 49379,
  "hdr": 29885,
  "ĉlabel": 30377,
  "Keep": 19999,
  "ebiliriz": 126223,
  "ĠSETTINGS": 75091,
  "Ġ~~": 78877,
  "Cancelled": 40573,
  "Ġthem": 1124,
  "ĠÙħ": 24252,
  "ĠPASS": 51935,
  ".free": 46695,
  "Ġspectacle": 57891,
  "Cheers": 75961,
  "isFunction": 95244,
  "Ġcommunications": 17320,
  "xls": 60620,
  "viders": 18234,
  "\\Persistence": 91275,
  "fq": 65019,
  "Ġcocina": 90706,
  ".isBlank": 63605,
  "Ġstudy": 4007,
  "ĠNodeList": 99811,
  "Ġthats": 41136,
  "ĠØŁ": 110033,
  "Ġsevered": 84450,
  "ĠReb": 52743,
  "æķ°åŃ¦": 118687,
  "å°": 16175,
  "ĠãĤŃ": 109949,
  "ĠÐ²Ð°ÑĢÐ¸Ð°Ð½": 127641,
  "Ġobliged": 54117,
  "Ġinability": 38550,
  "ĠjsonObject": 31327,
  "toPromise": 82759,
  "ÎºÎ·": 107266,
  "Ġtrem": 18659,
  "Ġtriá»ĩu": 106002,
  "Jer": 45057,
  "ë¯¼ì£¼": 126311,
  "ÑĨÑĸÑĶÑİ": 110556,
  "éĿŀ": 66776,
  "Ġà¤¶": 100446,
  "ÐºÐ¾Ð²Ð¾": 109965,
  "/how": 51426,
  "Ġnegotiating": 44725,
  "ÐºÐ°": 13433,
  "ãģĪãĤĭ": 105262,
  ".setCharacter": 95219,
  "_learn": 100048,
  "_spec": 13908,
  "ÄĽst": 102738,
  "ä¸ī": 46091,
  "alles": 97029,
  "Ġeducating": 67805,
  "ombs": 86804,
  "setCellValue": 42369,
  "ĠSpotify": 41637,
  ".Cont": 2510,
  "Ġalike": 27083,
  "Ġanimals": 10099,
  ":eq": 63771,
  "Ġihn": 41762,
  "Ġhace": 35905,
  ".ByteString": 80594,
  "ĠsaÃºde": 97995,
  "Timing": 63905,
  "ĠØ§ÙĦØªÙĤ": 117048,
  "TexParameteri": 63474,
  "Û±Û¹Û´": 127273,
  "ÏĦÎµÏģ": 107190,
  "nish": 97939,
  "ĠCult": 26676,
  "ĠThy": 67675,
  "Ġcats": 19987,
  "ĠÄ°nsan": 113056,
  ".BLUE": 77521,
  "_stub": 63881,
  "åĪ°åºķ": 123029,
  "ĠvÅ¡em": 121788,
  "ĠçļĦ": 44689,
  "à¹Ĥà¸Ľ": 116867,
  "Ġtitled": 25891,
  "Ġvidea": 113999,
  "Ġcondom": 37816,
  "ĠØŃØ¬": 115904,
  "ideal": 64053,
  "pga": 75769,
  "ĠTimeout": 40480,
  "ĠCapitol": 32633,
  "çľī": 121308,
  "Ġcuffs": 90569,
  "ordination": 99344,
  "mqtt": 87676,
  "Ġshaved": 66299,
  "Ġaggravated": 63368,
  "Ðŀ": 20976,
  "ĠBurning": 55792,
  "Ġstarts": 8638,
  "kk": 19747,
  "ĠTMP": 67353,
  "Ġfod": 62529,
  "Ġsentir": 75802,
  "(assigns": 96457,
  "EC": 7650,
  "BeginInit": 21000,
  "IRECTION": 41928,
  "ĠKund": 93987,
  "ĠTouchableOpacity": 64843,
  "ÙĲØ±": 118302,
  "ĠBorough": 85303,
  "Ð¾ÑĤÐµ": 116956,
  "æį®": 16423,
  "Ø²ÙĬØ¯": 114521,
  "å¹´é¾Ħ": 126766,
  "iage": 65540,
  "Ġacted": 31532,
  "ĠOSX": 88846,
  "Allocator": 43830,
  "ĠCu": 27560,
  "ĠblockDim": 82093,
  "Ġ}čĊčĊ": 2616,
  "Î¹Î½Î®": 120198,
  "ÅĻed": 100949,
  "Britain": 91838,
  "Î¹ÏĥÎµ": 119417,
  "ĠÑįÑĤÐ¾ÑĤ": 106380,
  "ĠØ®Ø¯Ø§ÙĪÙĨØ¯": 117944,
  "Ġreshape": 44909,
  "Framework": 15181,
  "ĠAnother": 13596,
  "AlmostEqual": 83347,
  "ĠGlyph": 88513,
  "anst": 62294,
  ".directory": 61037,
  "Ġexpertise": 19248,
  "-production": 70666,
  "Product": 4921,
  "Ġhealed": 62320,
  "æĿ¡ä»¶": 77195,
  "Ġà¸Ľà¸£": 120681,
  "off": 1885,
  "_Form": 29221,
  "arse": 2648,
  "æ±ĩ": 113912,
  "ĠHardware": 37865,
  "Ġcontracted": 51068,
  "Ġhubs": 69776,
  "ĠUnter": 34412,
  "Ġfittings": 70026,
  "ĠÐºÑĢÑĭ": 110011,
  "ĠWILL": 29015,
  "Ġrequirements": 8670,
  "Ġpropri": 21744,
  "ĠÑģÐ²": 45916,
  "Ġà¤ĩà¤¸": 100504,
  "ĠÐłÑĥÑģ": 121258,
  "ãĢĢãĢĢãĢĢãĢĢãĢĢãĢĢãĢĢãĢĢãĢĢãĢĢãĢĢ": 107261,
  "Ġvacancies": 67751,
  "lines": 8128,
  "_Tree": 91870,
  "ĠTrou": 42782,
  "ĠTuesday": 7742,
  "Ġcombat": 12896,
  "Ġfrustrated": 33630,
  "Luke": 59447,
  "ĠbyÄĩ": 60605,
  "ĠRosenberg": 97707,
  ",width": 42711,
  "ĠFred": 28588,
  "ìļ´ëıĻ": 122594,
  "implementation": 14706,
  "Ġamong": 4315,
  "ĉSerial": 94758,
  "Ġestim": 15279,
  "Ġpossible": 3284,
  "_locals": 95652,
  "ÙĭØĮ": 118724,
  "ĠLauren": 43460,
  "############": 17913,
  "-active": 32344,
  "Ġconcessions": 62608,
  ">):": 38123,
  "Ð»Ð°Ð´Ð°": 105877,
  "anden": 62800,
  "Ġbuck": 22786,
  "ÑĢÑıÐ´Ñĥ": 125881,
  "ĠIranians": 90431,
  "Ġcour": 2126,
  "Ġdecember": 90111,
  "egra": 88675,
  "enza": 24238,
  "urban": 60159,
  "à¸łà¸²à¸ŀà¸¢à¸Ļà¸ķà¸£": 125068,
  "Ġsonuc": 115133,
  "-location": 61970,
  "Rate": 11825,
  "Ġmedicines": 39653,
  "Rob": 14804,
  "ĠčĊ": 2591,
  "ĠOlymp": 15136,
  "Ġdct": 91264,
  "andering": 61380,
  "_construct": 65903,
  "fieldset": 24479,
  "ĠBrussels": 38269,
  "ĠØªØº": 104846,
  "chia": 90646,
  "à¥Ĥà¤¨": 103855,
  "Ġ\");": 37878,
  "ĠObviously": 36530,
  "Ġmuseum": 24925,
  "tion": 28491,
  "_internal": 24369,
  "conditional": 46468,
  "Å¯m": 101855,
  "å¤ľ": 103309,
  ";?>Ċ": 40669,
  "Drive": 33557,
  "Ġxs": 12209,
  "Ġprompting": 50745,
  "Ð½Ð¸Ñı": 101319,
  "ĠRelay": 47272,
  ")>Ċ": 77008,
  "Ġfruity": 93032,
  "-size": 7321,
  "ricks": 78889,
  "Ġ+**************": 117159,
  "ucher": 74712,
  "ÑĨ": 10589,
  "Ø§ÙĤØªØµ": 119286,
  "ĠRhe": 71636,
  "Ġdata": 828,
  ":url": 36830,
  "ĠHint": 52930,
  "aur": 4202,
  "lsx": 30117,
  "Ġë¸Ķ": 109327,
  "aydÄ±": 114605,
  "Ġcourt": 5590,
  "_ver": 27133,
  "à¤¿à¤¸à¤ķ": 107272,
  "'\";čĊ": 73433,
  "FPS": 67841,
  "çĪ½": 126976,
  "Ġobsessive": 84132,
  "'S": 13575,
  "Ġjedis": 71527,
  "VertexAttrib": 52083,
  ".DateTime": 16754,
  "çİī": 106157,
  "ĉsm": 73123,
  "ĠÎ²": 34318,
  "Successfully": 37059,
  "licted": 42443,
  "sections": 25686,
  "ÑĶÑĹ": 105366,
  "Ġdinner": 14177,
  "ĠÏĩÏī": 111313,
  "ĠOmn": 90934,
  "Ġarcs": 67850,
  "ĠÑĤÑĢÐµÑĤ": 114306,
  "(sentence": 57158,
  "Ġintuition": 57351,
  "'an": 62595,
  "sanÄ±z": 108724,
  "ĠMoose": 69228,
  "Ġunrealistic": 71985,
  "MAND": 26003,
  "ĠChristmas": 10280,
  "ĠWants": 78578,
  "Ġcudd": 65245,
  "oÅ¾e": 121172,
  "Recognition": 62392,
  "_view": 7268,
  "ĠÐĵÑĢÐ¸": 116134,
  "é£": 72406,
  "gages": 56144,
  "Ġdunk": 64572,
  "ĠMMO": 78285,
  "Ġvarious": 5370,
  "(ARG": 81457,
  "ĠÐ±Ð¾Ðº": 120256,
  "alphabet": 90553,
  "Ġtold": 3309,
  "ĠÐ²ÑĤÐ¾ÑĢ": 106737,
  "_using": 76280,
  "-like": 12970,
  "ĉclock": 85265,
  "SF": 29767,
  "ç´«": 117508,
  "ISA": 35301,
  "ĠCabinet": 34046,
  "ĠÐ¼Ñĥ": 105938,
  "Ġkrat": 92114,
  "Ð¾Ð½Ð¾Ð¼": 105399,
  "ĠProgramm": 75010,
  "ãĥªãĤ«": 109896,
  "ÐµÐºÑĤ": 30656,
  "########################": 85399,
  "Participants": 78646,
  "ĠWade": 43982,
  "S": 50,
  "ĠEquipment": 20849,
  "_BUSY": 68383,
  "ĠFVector": 71384,
  "'=>\"": 54798,
  "Lt": 88760,
  "primaryKey": 55613,
  "ĠÐ½Ð°ÑģÐµÐ»ÐµÐ½Ð¸Ñı": 117213,
  "culus": 42449,
  "ĠENABLE": 34340,
  "Ġcualquier": 47009,
  "black": 11708,
  "Ġamazing": 8056,
  "-detail": 30672,
  "{\\": 36802,
  "ĠAnime": 52215,
  "ĠSigma": 50637,
  "Ġbookings": 59620,
  "ĠJacques": 64850,
  ".findOne": 21554,
  "ĠMediterr": 37537,
  "ĠSpencer": 36221,
  "ĠOperator": 29598,
  "Ġnavy": 45874,
  "ĠNorth": 4892,
  "ouve": 83384,
  "Ġadaptive": 48232,
  "Ġforehead": 52354,
  "èĻ½": 107180,
  "Ġ\"\"}Ċ": 94296,
  "ĠPeb": 90005,
  "ĠëĭĪ": 118563,
  ".intent": 82361,
  "_children": 32306,
  "asto": 54485,
  "Ð°ÑĤÐ¾ÑĢÐ°": 119423,
  "Ġlocalhost": 48522,
  "Ġtranslation": 14807,
  "Ġcavalry": 79657,
  "lov": 36247,
  "z": 89,
  "ÐµÑĢÐ¿": 114471,
  "Ø´ÙĩØ±": 114786,
  "ä¸»è¦ģ": 105572,
  "ĠAM": 6912,
  "UNDER": 82491,
  "Ä±nma": 125763,
  "Ġrabbits": 70244,
  "ĠØ¨Ø±Ú¯Ø²": 127094,
  "ĠêµĲ": 101999,
  "Statistics": 39699,
  "ĠÐ²Ñĩ": 114557,
  "Ġuplift": 97547,
  "ÙĴØ¹": 120979,
  ".GetById": 83274,
  "Outline": 61369,
  "_IV": 63017,
  "Ġ<+": 86803,
  "_into": 46614,
  "Ġgx": 62133,
  "ÛĮØ²Ø§Øª": 119561,
  "Ġquan": 100809,
  "Ġreporter": 19496,
  "Lic": 99241,
  "ÏĢÎ±Î¯Î´": 124924,
  "ĠUNITED": 85610,
  "balanced": 59502,
  "etype": 16612,
  "ĠSolidColorBrush": 92351,
  "ĠInternacional": 96167,
  "Ġnegligence": 59357,
  "ëħĦìĹĲëĬĶ": 116614,
  "å½ĵçĦ¶": 112672,
  "nero": 70052,
  "ombres": 31132,
  "(urls": 92282,
  "ãĢĤä»ĸ": 107751,
  "Ġglobally": 31550,
  "elia": 37029,
  "ĠÑıÑģ": 121816,
  "_register": 14327,
  "Ø¯ÙħØ©": 120038,
  "perate": 80213,
  "ĠÙĬÙĨ": 106853,
  ".canvas": 25794,
  "arness": 24422,
  "ĠSit": 29508,
  "&R": 85120,
  "ìĭ¬": 102612,
  "ĠØ®Ø§Ø±Ø¬": 104766,
  "radio": 12924,
  "ĠOriginally": 25842,
  ".recv": 41533,
  "_func": 9791,
  "_OVER": 33143,
  "??": 7801,
  "Ä±lmÄ±ÅŁtÄ±r": 114860,
  "Ġdrifting": 85353,
  "Ġseminal": 90773,
  "Ġtotalitarian": 90364,
  "Î¬Î½Î½Î·ÏĤ": 125046,
  "ĠSlovenia": 79317,
  "Activation": 62560,
  "Ġneoliberal": 81568,
  "ĠgetType": 37681,
  ",S": 21861,
  "ietet": 58008,
  "ĠJUL": 88160,
  ".warn": 22123,
  "_SERVER": 20610,
  "ãĥ¼ãĥĨ": 111073,
  "Ġdoanh": 101818,
  "Ġkonnte": 65115,
  "olk": 23427,
  "ĠLeap": 72382,
  "à¤¿à¤ľà¤²": 124840,
  "ĠIron": 16979,
  "ĉfalse": 37112,
  "Ġcomputed": 25157,
  "Ġvolunteers": 23872,
  "ÑĢÐµÑħ": 110355,
  ".car": 27988,
  "ĠBigDecimal": 21267,
  "Remember": 29690,
  "Ġfunnel": 61319,
  "Ġsenza": 43026,
  "Ø·Ø§ÙĨ": 112634,
  ".hu": 59126,
  "éħĴåºĹ": 110496,
  ".Font": 4454,
  "ĠÐ´Ð¾ÑĤÑĢÐ¸Ð¼": 126518,
  "Cr": 16384,
  "ĠìĤ¬ì§Ħ": 105429,
  "ãĢĤï¼Į": 38741,
  "ÑĸÐ·": 100722,
  "atisfaction": 52370,
  "spread": 59295,
  "Ġcounterparts": 38495,
  "awks": 30378,
  "ĠÑģÐ°Ð¼Ð¾ÑģÑĤ": 109607,
  "æĿĲ": 103234,
  ".rd": 98308,
  "Ġ'\\\"": 85949,
  "Ġhudeb": 121818,
  "Ġiht": 104112,
  "Ġqual": 5965,
  "xt": 2302,
  "\"`Ċ": 8981,
  "à¤Ĥà¤ļ": 106433,
  "Ġexercise": 10368,
  "Ġretries": 61701,
  "Forget": 88383,
  "-fontawesome": 96948,
  "_allocator": 58010,
  "atÄ±cÄ±": 124829,
  "Ġlease": 26120,
  "ĠHunting": 45354,
  ".arange": 25306,
  "Ġâĸº": 66311,
  "é¼ĵ": 117681,
  "ĠBrasil": 43025,
  "ĠElectronics": 38784,
  "Ġunittest": 20499,
  "NP": 27321,
  "ĠRoom": 10637,
  "Ġà¹Ģà¸ļ": 116264,
  "ĠÐ´ÑĢÑĥÐ·": 119877,
  "Extra": 11873,
  "ĠCSRF": 79695,
  "Ġlimitation": 20893,
  "infile": 75933,
  "ĠColt": 91484,
  "_object": 5427,
  "ĉID": 30680,
  "Ġ\"><": 97434,
  "OBJECT": 44947,
  "-carousel": 53337,
  "ĠÐ²Ð·Ð°": 107665,
  "\":[{\"": 67682,
  "ellipse": 69104,
  "(\"\")Ċ": 32864,
  "Ġattends": 75112,
  "ĠRealt": 88972,
  "Ġresistance": 13957,
  "ĠÑĢÐµÐ²Ð¾Ð»Ñİ": 123146,
  ":-": 11184,
  "Collapsed": 91539,
  "ĠENG": 71639,
  "Ġgrooming": 75161,
  "\"><?=": 34073,
  "ratings": 74236,
  "/book": 53384,
  "tv": 23001,
  "çĭ¬ç«ĭ": 118326,
  "datetime": 15814,
  "Ġensures": 26420,
  "ĠâĢ»": 84499,
  "parents": 26534,
  ".sorted": 70197,
  ".Record": 51059,
  "Ġexam": 7151,
  "ĠGi": 15754,
  ".RELATED": 41382,
  "(d": 1528,
  "Î»ÎµÏħ": 106043,
  "ãĥĸãĥ©": 110101,
  "ĠEvents": 18093,
  "Ġbers": 59654,
  ".offsetWidth": 78907,
  "/backend": 71120,
  "ĠĠĠĠĠĠĠĠĠĠĠĠĠĠĠĠĠĠĠĠĠĠĠĠĠĠĠĠĠĠĊ": 87870,
  "ueba": 43512,
  "ĠGoals": 55293,
  "Äĥn": 100955,
  "(password": 23608,
  ".Properties": 16324,
  "Ġcommune": 79245,
  "ĠAmerik": 115379,
  "éº»": 108068,
  "icions": 78210,
  ".Save": 13913,
  "223": 12533,
  "ĠDelta": 26002,
  "attern": 3307,
  "ĠStatistical": 66794,
  "ĠÐ±ÑĢÐ°ÑĤ": 125477,
  "Ġ/>ĊĊ": 19053,
  "ĠnÃºt": 126414,
  "Ġsucesso": 44562,
  "ĠedilmiÅŁ": 119360,
  "Ø³": 20665,
  "ĠØŃØ¯Ø§ÙĤÙĦ": 127132,
  "ì°½": 106646,
  "ì²Ń": 102039,
  "ĠKnowing": 58733,
  "Ġthanked": 57595,
  "ĠÐ·Ð°Ð²Ð¸ÑģÐ¸Ð¼Ð¾ÑģÑĤÐ¸": 114885,
  "ĠÐŁÐ°Ð²": 114087,
  "DJ": 54372,
  "structions": 20232,
  "ĠTechnique": 78719,
  "ĠBet": 13315,
  "ĠMGM": 99491,
  "Ġstations": 17789,
  "ĠGreen": 7997,
  "Ø§ÛĮØ¬": 116544,
  "Ù¢": 110546,
  ")ìĿĦ": 122369,
  "ĠLOCATION": 66683,
  "ĠassertThat": 17412,
  "ĠÃ¡ll": 95885,
  "ĉusername": 73458,
  "Ð±ÑĥÑĢÐ³": 124050,
  "Ġdefender": 29315,
  "ÑĤÐ¾ÑĦ": 120372,
  "ï¼ħ": 113127,
  "Ġalien": 20167,
  "/boot": 89976,
  "ÑĥÐ¶Ð´": 119790,
  "ĠJComboBox": 88749,
  "anut": 38918,
  "ìĺģ": 101090,
  "ĠLy": 16333,
  ".writeHead": 77985,
  "Ġstad": 87223,
  "Ã«": 12456,
  "Ġcallee": 95900,
  "Picker": 11185,
  "ĠÐ¿ÑĢÐ¾Ð¸Ð·Ð²Ð¾Ð´": 104905,
  "ĠAmp": 54787,
  "ĠMÃ¼": 64730,
  "ĠAngola": 98792,
  "Ġ\"ĊĊ": 23584,
  "Ġlingering": 64610,
  "Ġregistrar": 62567,
  "mination": 33196,
  "ĠTrial": 41574,
  "ĠZheng": 77547,
  "Ġfeasible": 43303,
  "Ġnamely": 32125,
  "Ġà¸®": 112226,
  "Ø§Ø¦Ùģ": 120407,
  "UGH": 38912,
  "Ġcup": 10747,
  "ĠUINT": 13975,
  "Ġinitialised": 88767,
  "ĠÙĤÙĪÙĦ": 126072,
  "_gt": 38579,
  "ÑĤÐ¾Ð½": 113357,
  ".createUser": 87677,
  ".Theme": 70958,
  "216": 12463,
  "Ġproductive": 27331,
  "Solid": 47041,
  "Ġå¦Ĥ": 70472,
  "ĠÚ©Ø§ÙħÙĦØ§": 122884,
  "Ġconspicuous": 97985,
  "ĠKnock": 64894,
  "_markup": 55549,
  "ĠDock": 45201,
  "ĠmaxSize": 63035,
  "<|reserved_special_token_85|>": 128093,
  "ĠFuel": 37384,
  "[])čĊ": 93290,
  "Ġciclo": 90670,
  "ĠAuthentication": 24446,
  "_RESULTS": 77115,
  "_RG": 48404,
  "ert": 531,
  "ĠìĿ¼ë¶Ģ": 116686,
  "=explode": 92570,
  "__);Ċ": 21898,
  "ĠPersist": 94443,
  ".Stderr": 78419,
  "Qualified": 67093,
  "-archive": 96200,
  "Ġ=>čĊ": 49768,
  "(Task": 48631,
  "UA": 18258,
  "ĠPolymer": 97770,
  "_DEVICE": 18586,
  "Ġmensen": 65799,
  "ĠZot": 89924,
  "uktur": 86056,
  "ipelines": 95097,
  "ĠNy": 37832,
  "ĠÎķÎ¾": 116276,
  "èĪŀ": 107875,
  "Ġelgg": 96753,
  "ĠØ®Ø´": 111956,
  "ertil": 86795,
  "ycopg": 72825,
  "Configurer": 63924,
  "ĠØ¯Ø±ØµØ¯": 112330,
  "ĠgetItem": 28076,
  "_(": 8526,
  "Intl": 99791,
  "ĠIMO": 85171,
  "Ġvowels": 79556,
  "ĉgui": 86718,
  "Ġadmirable": 85684,
  "/service": 35286,
  "FLT": 80955,
  "é¡į": 109518,
  "Ġshelf": 28745,
  "ĠÑĤÑıÐ¶": 109967,
  "Plane": 35670,
  "Ġdistingu": 19512,
  "emem": 124325,
  "Ġboo": 47370,
  "ĠPow": 24523,
  ".Serial": 13717,
  "Ġss": 11107,
  "Ġgiveaway": 61064,
  ".sql": 10251,
  "à¹ģà¸ŀà¸£": 126334,
  "Ġphá»¥": 105081,
  "Desc": 11312,
  ".OnClickListener": 15811,
  "Ġdare": 33304,
  "aily": 5179,
  "ĠZealand": 17340,
  "ĠADV": 25557,
  "-new": 23065,
  "ampled": 66107,
  "ĠTextArea": 89828,
  "ĠÑĥÐ¼Ð¾Ð²": 109325,
  "/auto": 92350,
  "*-": 74077,
  "Ġfirmy": 119699,
  "Ġsynaptic": 99827,
  "à¹ĩà¸Ļà¸ª": 111706,
  "(selection": 57461,
  "OURS": 60373,
  "aces": 2492,
  "Ġgubern": 91522,
  "Ġinsurers": 56374,
  "english": 30220,
  "ĠPIXEL": 96922,
  "meaning": 57865,
  "ĠDebug": 11338,
  ".W": 1196,
  "ĠÑĤÐµÐ¼Ð¿ÐµÑĢÐ°ÑĤÑĥÑĢÑĭ": 120105,
  "ĠJNI": 71929,
  ".Configure": 79381,
  "ëħ": 75265,
  "exterity": 59916,
  "Analyzer": 56011,
  "=\".$_": 97752,
  "charts": 37684,
  "Ġfinished": 8220,
  "ĠÙģÙĪ": 105995,
  "Ġaggregated": 71922,
  "ĠÄįtyÅĻi": 118541,
  "token": 5963,
  "ĠdÃłnh": 110587,
  "deploy": 36894,
  "reds": 54469,
  "horn": 51984,
  "Ġsera": 35737,
  ".AnchorStyles": 14251,
  "ĠBaseActivity": 75745,
  "ĠJuli": 73224,
  "Ġhaya": 80621,
  ")},": 43519,
  "åĲĽ": 106656,
  "Ġbranch": 9046,
  "ĠDÃ¼nya": 110920,
  "ÑĨÐ¸ÑıÑħ": 124447,
  "Ġgerekli": 109428,
  "Ġbigot": 66803,
  "ķìĿ¸": 67361,
  "asily": 38367,
  "Ġelekt": 103661,
  "Ġrealpath": 92894,
  "ĠSPORT": 73595,
  "ĠpÃŃsem": 127213,
  "Ġstepper": 97032,
  "Ġsidebar": 28325,
  ".assertTrue": 15659,
  "Ġvice": 17192,
  "([])Ċ": 43052,
  "Mot": 61032,
  "Ġkind": 3169,
  "Ġä»¶": 122510,
  "ĠhandleClose": 82667,
  "acf": 63694,
  "Ġunethical": 89735,
  "ĠÐºÐ»": 48446,
  "ĠAlgorithms": 86859,
  "Ġvá»Ľi": 100409,
  "ĠìłĦì²´": 110078,
  "ĠÛĮ": 100380,
  "à¸ªà¸²à¸£": 107704,
  "Ġáº¥n": 116404,
  "Ġing": 6892,
  "538": 22600,
  ".pull": 84372,
  "Ú": 150,
  "ĠprogressBar": 48176,
  "ĠÐ¿ÑĢÐµÐ´Ð½Ð°Ð·Ð½Ð°Ñĩ": 126357,
  "]})Ċ": 82261,
  "ĠãĢĥ": 123026,
  "ID": 926,
  "Diagnostic": 80488,
  "è®¨": 112962,
  "Ġprecision": 16437,
  "_FRONT": 53015,
  "glass": 59536,
  "Ġmesmer": 84461,
  "_det": 25413,
  "portal": 39053,
  "regnum": 106845,
  "(Search": 74654,
  "æİªæĸ½": 123755,
  "ssi": 46756,
  "à¥ģà¤ªà¤¯": 110829,
  "âĢĶand": 17223,
  ".Animation": 51032,
  "ĠDenver": 22898,
  "ĠÑģÐ¾Ð¾ÑĤÐ²ÐµÑĤÑģÑĤÐ²": 106445,
  "ìĶ": 103897,
  "ĉfprintf": 16562,
  "Ġwrink": 58370,
  "_TRNS": 93805,
  "ĠCoÄŁraf": 127877,
  "\"These": 68879,
  "larÄ±na": 102552,
  "<Renderer": 90361,
  "fee": 31117,
  "Ð¸ÑĢÐ°": 105953,
  "olecules": 82206,
  "-cli": 55897,
  "asar": 68038,
  "ãĥ³ãĥĲ": 113155,
  "Ġorig": 2780,
  "Ġrepercussions": 81909,
  "ãĥ«ãĤ¯": 125041,
  "æĮī": 60979,
  "ĉtest": 18684,
  "Ġsta": 29611,
  "<*": 79922,
  "icultural": 53915,
  "rgyz": 99962,
  "ĠGardens": 43143,
  "Ġdiabetic": 71975,
  "Ġlatch": 58026,
  "ĠÐ¿ÐµÑĢÐµ": 104642,
  "459": 22094,
  ":key": 65949,
  "ĠRandomForest": 91814,
  "ROWS": 38242,
  "ĠtoJson": 66357,
  "Ġuc": 26805,
  "-half": 34902,
  "Ġlbl": 16826,
  "ĠØ§Ø±Ø§Ø¦Ùĩ": 109789,
  ".Static": 59926,
  "(b": 1921,
  "ĠLeading": 59143,
  "reason": 20489,
  "Ġcoord": 16896,
  ",},Ċ": 61099,
  "Ġpatriarch": 71321,
  "Ġchem": 8590,
  "Ġwishlist": 72762,
  "-interest": 65873,
  "oxetine": 91703,
  "ìľµ": 123061,
  "ĠCard": 6938,
  "_requires": 56049,
  "indice": 74517,
  "agem": 15003,
  "ì¹Ń": 116076,
  "Ġamusement": 62468,
  ":NS": 24721,
  "ĠÎ±Î´": 125429,
  "(goal": 89243,
  "56": 3487,
  "_SECURE": 78948,
  "382": 18781,
  "ĠREV": 66923,
  ":#": 14443,
  "edd": 54637,
  "Ġsweat": 28566,
  "lose": 1497,
  "wave": 31498,
  "Jesus": 55065,
  "Ġatheist": 67464,
  "Ġpartnering": 70220,
  "Ġclear": 2867,
  "ĠPear": 23910,
  "ÏĥÎ¿": 103581,
  "ç»į": 114877,
  "sert": 6175,
  "aus": 12119,
  "Ġ(+": 18457,
  "Ġì¡¸ìĹħ": 120362,
  "åĩ½æķ°": 33904,
  "ĠfontSize": 11132,
  "Ġipairs": 57344,
  ".)ĊĊĊĊ": 76794,
  "ÐµÐ²Ð¾": 122618,
  "æĪĲåĳĺ": 125595,
  "Ġà¤¸à¤«": 111183,
  "à¸±à¸ģà¸Ķ": 114490,
  "Ġmij": 69497,
  "Ġcause": 5353,
  "\\DB": 51218,
  "âĢĿĊĊ": 7663,
  ".Margin": 20952,
  "?>ĊĊĊ": 69886,
  "ĠÐ»Ð¸ÑĨÐ¾": 123298,
  "<|reserved_special_token_27|>": 128035,
  "ĠÐ¿ÑĢÐµÑģ": 121745,
  "_https": 27915,
  "solver": 76601,
  "ĠÑįÑĤÑĥ": 116525,
  "è»½": 117355,
  "ĠtiÃªu": 102673,
  "_keep": 51393,
  "\"])Ċ": 14440,
  ":convert": 96715,
  "easy": 46122,
  ".getC": 23308,
  "éŁ©": 109863,
  "Ġseasonal": 36899,
  "-human": 70095,
  "Ġracing": 22019,
  "ĠWPARAM": 85528,
  "CP": 7269,
  "ĠTáºŃp": 119742,
  "/application": 34132,
  "_msg": 6619,
  "ĠautoFocus": 95581,
  "Ġchica": 80688,
  "plist": 41034,
  "Ġragazza": 77295,
  "ĠSOUND": 85373,
  "ĠRates": 48076,
  "ĠUnderstanding": 46551,
  "Ġkural": 115661,
  "Palindrome": 69794,
  "Ġcommentary": 31710,
  "Î»Î±Î½": 127825,
  ".ExecuteScalar": 82669,
  "_PCM": 70171,
  "ãĤĪãģĨãģ«": 104466,
  "Ġbarriers": 30740,
  "ĠRCA": 99431,
  "Ġpickup": 30686,
  "Ġyoga": 27102,
  "Jeremy": 76665,
  "Cli": 88114,
  "ĠWeed": 94409,
  "Ġhacked": 47939,
  "_STATIC": 32452,
  "RON": 42814,
  "ĠVoter": 95124,
  "net": 4816,
  "pherical": 45845,
  "ĠDisorder": 63877,
  "ĠÐ¿ÑĢÐ¾Ð³ÑĢÐ°Ð¼Ð¼": 94508,
  "ĠHeavy": 29201,
  "ĠÐ³ÑĢÑĥÐ´": 107527,
  ".HashSet": 45986,
  "ODO": 4564,
  ":j": 58658,
  "Threshold": 38941,
  "Ġkoje": 97599,
  "ĠÐ¼Ð°Ð¹Ð±ÑĥÑĤ": 119106,
  "//$": 21207,
  "rupa": 106566,
  "çĪ¸": 117283,
  "Ġib": 19185,
  "Ġverw": 32200,
  "Ġxlink": 97339,
  "ĠCOPY": 12528,
  "ĠSelection": 25117,
  "671": 23403,
  "Ġlimitless": 92659,
  "ĠLower": 28636,
  ".folder": 61629,
  "Â¤": 82638,
  "Ġíķ´ëĭ¹": 95713,
  "landa": 121707,
  "Ġreleasing": 28965,
  "ycler": 10993,
  "Sk": 19847,
  ".Keyboard": 79793,
  "Ġattain": 36861,
  ".Pow": 55991,
  "$scope": 20015,
  "ACP": 62395,
  "Ġbudou": 104924,
  "Ġhear": 6865,
  "Ġá»ķ": 109783,
  "Ð¾Ð³Ð»Ð°Ñģ": 125979,
  "accept": 10543,
  "Ġ|_|": 67191,
  "Artifact": 86678,
  "æŀľ": 28873,
  "EMPL": 17605,
  "mir": 20531,
  "ç¾": 47453,
  "ĠBounty": 95289,
  "elijke": 66146,
  "boy": 17627,
  "Ġabolition": 76445,
  "UGC": 62002,
  "ĠMetrics": 55290,
  "Ã£i": 109285,
  "Ġ}čĊčĊčĊ": 25064,
  "ĠÐ³Ð¸Ð´": 119088,
  "DECL": 22570,
  "Connell": 39594,
  "Lesson": 71504,
  "(filePath": 30705,
  "ĠWh": 1254,
  "ĠkaynaÄŁÄ±": 124457,
  "ĠìµľëĮĢ": 125554,
  "ĠÐºÐ¾Ð½ÑĤ": 78085,
  "Ġserializer": 22508,
  "adaptiveStyles": 50325,
  "cripcion": 21323,
  ".framework": 21672,
  "ĠCOVER": 96139,
  "Ġexplored": 36131,
  "Ġä¸ĭ": 40195,
  ",No": 86176,
  "contra": 97843,
  "928": 25001,
  "Ġgender": 10026,
  ".Direct": 90692,
  "æĹħæ¸¸": 118629,
  "ĠIDF": 72655,
  "-C": 7813,
  "Ġtheaters": 44866,
  "ĠRidley": 93401,
  "iability": 79443,
  "Ġsvens": 49797,
  "Ans": 70699,
  "ëŁ¼": 104221,
  "Ġsweeps": 97567,
  "_deleted": 40518,
  "ius": 9334,
  "Ideal": 100192,
  "ĠĠĠĠĉĉĉ": 31036,
  ".Unity": 62154,
  "Ġgaat": 69145,
  "Ġreq": 4326,
  "_is": 7037,
  "reating": 73910,
  "ĠCutting": 63525,
  "Ġforcing": 25957,
  "007": 11194,
  "Ġbli": 60389,
  "/windows": 76449,
  "abez": 84578,
  "Ġbitmask": 92061,
  "Ġproto": 18940,
  "Ġsigns": 12195,
  "Ġvak": 75925,
  "ĠÑģÐ°Ð¼Ðµ": 109363,
  "Benchmark": 86071,
  "Ġdearly": 98663,
  "Ġcert": 2847,
  "Ø®ÙĬ": 121556,
  ".handlers": 56101,
  "description": 4789,
  "Ġ];": 13385,
  "858": 23805,
  "teÅŁ": 124390,
  "_true": 16469,
  "isateur": 33226,
  "ĠBorderRadius": 32694,
  "ĠPract": 18373,
  "ĠGuidelines": 48528,
  "ĠÏĢÎ»Î·": 110083,
  ".Substring": 26258,
  "RF": 18077,
  "é¡µéĿ¢åŃĺæ¡£å¤ĩä»½": 114332,
  "Ġwild": 8545,
  "$file": 46424,
  "(hours": 70697,
  "ĠØ§ÙĦÙĩ": 103191,
  "-produ": 46354,
  "Ġà¤¸à¤°à¤ķ": 103549,
  "_python": 56969,
  "ÑĤÐµ": 51627,
  "ĠHorm": 92208,
  "ĠÙĪ": 38624,
  "[](": 52094,
  "-ticket": 94322,
  "CHAN": 85516,
  "ĉesc": 81729,
  "(\"\");ĊĊ": 57241,
  "ĠMarxism": 83815,
  "Ġdilemma": 55867,
  "OLDER": 25787,
  "/qu": 79945,
  "-mar": 71098,
  "çł": 100702,
  "READ": 9754,
  "ÏģÎ¯Î¶": 115086,
  "åĳ¼": 105324,
  "Virginia": 81696,
  "_CF": 73158,
  "ĠMobil": 70930,
  "Ġutterly": 38631,
  "ĠSQUARE": 93382,
  "%čĊ": 47656,
  "Cho": 26697,
  "tau": 30243,
  "ÑĸÐ½Ð½Ñı": 103231,
  "'){": 43555,
  ".Collection": 29729,
  "vÄĽÅĻ": 118386,
  "ĠÙħØ·Ø§ÙĦØ¹Ùĩ": 116722,
  "ĠÐ´Ð»Ð¸ÑĤÐµÐ»ÑĮ": 120836,
  "Ġimmunity": 40368,
  "(tasks": 71439,
  "ĠðŁĺīĊĊ": 82536,
  "ĉhandler": 54426,
  "ĠSirius": 61134,
  "ÑĪÑĤ": 112821,
  "Ġgig": 23401,
  "fprintf": 32717,
  "Ġcaptivity": 84019,
  "Ġfees": 12718,
  "kÃ¼": 103594,
  "ueling": 80097,
  "æ¼«": 109620,
  "ÙħÙĨØª": 120868,
  "ĠÐ·Ð²ÑĸÐ»ÑĮ": 124251,
  "Ġcháº¿t": 112594,
  ")||": 45046,
  "Ġartworks": 97549,
  "æĸĻ": 42506,
  "ĠÐ¿ÑĢÐ¾Ð¶": 110727,
  "_inode": 47848,
  "ĠData": 2956,
  "Ġincor": 9097,
  "åŁ¹": 107517,
  "ĠConnecticut": 31461,
  "leys": 48779,
  "728": 24054,
  "Echo": 76094,
  "Ġethanol": 62772,
  "ulaire": 74775,
  "El": 6719,
  "Ġturns": 10800,
  "ÄŁine": 107877,
  "ìłľ": 38187,
  "Ð·": 9136,
  "_Price": 94334,
  "ĠÏĦÎ¿": 100464,
  ".ID": 10111,
  "Ġcurses": 68247,
  "Ġvoiced": 52468,
  "_guest": 63839,
  "_PORTS": 96659,
  "Ġsettings": 5110,
  "éĽª": 105686,
  "-night": 45427,
  "ĠJonah": 94728,
  ".dat": 10116,
  "ÄįnÃ½": 116235,
  "Ġafin": 54401,
  "INavigationController": 52317,
  "Ġneigh": 97266,
  "Ġorganisations": 29533,
  "ĠEkim": 110766,
  "ĠCheck": 4343,
  "pure": 52833,
  "ĠRyzen": 93836,
  "\",\"\",\"": 60959,
  "ĠAlert": 14302,
  "Nhap": 96156,
  "Ġquaint": 88608,
  ">\",Ċ": 36552,
  "ĠBlu": 38869,
  "ĠDivide": 64002,
  "ĠÐ½Ð¾ÑıÐ±ÑĢÑı": 121912,
  "aran": 22026,
  "_ANGLE": 80034,
  "yÃ¼k": 89655,
  "ĠQtGui": 40740,
  "Ġloos": 46050,
  "(quantity": 91646,
  "Ġsuppression": 46735,
  "æĺŁ": 78519,
  "ĠSears": 74334,
  "toHaveBeenCalledTimes": 83644,
  "Ð¾ÑĢÐ°": 101079,
  "ï¼Įå¥¹": 105902,
  "Ġimprison": 29319,
  "ĠphÃª": 113839,
  "_Interface": 75726,
  "!\".": 94093,
  "Ġimplications": 25127,
  "Ġmatplotlib": 17220,
  "Î³Î³ÎµÎ»": 115445,
  "Ã©p": 102504,
  "ĠGLUT": 70373,
  ".Scale": 52932,
  "ĠØ§Ø¨": 101558,
  "_kses": 97896,
  "ĠLO": 5125,
  "ĠÐļÐ¾": 123063,
  "CHEMY": 84752,
  "ĠPBS": 60145,
  "diamond": 89676,
  "Ġpretext": 94914,
  "è·µ": 124299,
  "Ġsharply": 46473,
  "Ġbk": 67201,
  "Ġmehr": 19028,
  "JUST": 49102,
  "ĠØ§ÙĦÙħÙĦÙĥ": 116001,
  "Ġ\"\\\",": 78985,
  "LOAD": 13285,
  "à¤¿à¤¨à¤Ł": 125784,
  "Ġrebut": 84129,
  "ĠÐ¿Ð¾Ð»ÑĮÐ·": 110336,
  "(bot": 51221,
  "`.Ċ": 19154,
  "TÃ´i": 127806,
  "etten": 95201,
  "ï¿½ï¿½ï¿½ï¿½": 24378,
  "ervative": 54268,
  "ĠBunlar": 126448,
  "ĠConan": 79912,
  "Ġfolly": 81789,
  "_produk": 81852,
  "-selector": 77227,
  "ÑĨÑıÑĤÑĮ": 127214,
  "ĠAgricult": 29000,
  ".D": 920,
  "BracketAccess": 94652,
  "\">ĊĊ": 7879,
  "Ġopacity": 19172,
  "ìĭĿ": 77437,
  "Ġ\"%\"": 79897,
  "Ġplt": 6653,
  "Ġì²ł": 112521,
  "AST": 6483,
  "Ġobsolete": 47166,
  "argar": 34992,
  "à¤¦à¤®": 117055,
  "çĩ": 103809,
  "<Select": 81177,
  "ìĬ¤íĭ°": 127186,
  "ĠÙĨÙĤØ´": 106520,
  "Ġerect": 38732,
  "Ġ*(*": 87824,
  ".Transport": 88769,
  "_AG": 38951,
  "_ent": 28525,
  "èĤĸ": 120620,
  "imates": 48571,
  "ĠGridLayout": 81179,
  "=no": 31415,
  "ÑĩÐ°Ð¹": 105526,
  "ĠLifecycle": 75492,
  "/Observable": 96755,
  "ĠIICIII": 110025,
  "Ġbillionaires": 90386,
  "].ĊĊ": 30662,
  "ĠABS": 37581,
  "ħį": 45204,
  "<unsigned": 27451,
  "biased": 65401,
  ".className": 20608,
  "ĠFernando": 51485,
  "Ġà¤ªà¤¹": 101372,
  ".eu": 36103,
  "Ġê½": 114417,
  "/angular": 41151,
  "Ġffi": 78056,
  "\"]);ĊĊ": 57019,
  "Ġphenomena": 44247,
  "Ńå·ŀ": 122704,
  "Ġisize": 92473,
  "umor": 69361,
  "=text": 49406,
  "ĠíĻĪ": 113888,
  "Ġdbl": 90095,
  "icipation": 77453,
  "Son": 46714,
  "oppable": 78639,
  "èĲ¨": 113715,
  "Ġjun": 18169,
  "Ġmales": 25000,
  "Ġà¤¨à¤ľà¤°": 124034,
  "cn": 14606,
  "ãģ¡ãĤĥ": 104702,
  ".cont": 5458,
  "ĠCara": 80013,
  "ĉparent": 25841,
  "oleÄį": 101984,
  "Ġlocally": 24392,
  "ĠÐ¸ÑģÐºÐ»ÑİÑĩ": 112968,
  "()==\"": 86468,
  "Ġrip": 24169,
  "licas": 53310,
  "ĠsatÄ±ÅŁ": 111622,
  "Ġidentical": 20086,
  "_human": 87347,
  "ĠSuitable": 86346,
  "ĠResponsible": 68728,
  "View": 860,
  "à¹īà¸Ńà¸ĩ": 100972,
  "().\"": 75003,
  ".Millisecond": 72582,
  "annotations": 40726,
  "_gp": 76296,
  "IMPORTANT": 99843,
  "Ġhizmeti": 122442,
  "agenda": 80823,
  "Ġfence": 25675,
  "Ġwhereas": 20444,
  "313": 15231,
  "Ġthi": 62428,
  "Ġreferendum": 30798,
  "åıĳéĢģ": 73117,
  "ĠĠĠĠĉĉĉĉ": 51638,
  "Ġdepletion": 92948,
  "Ġunix": 52966,
  "Ġpurified": 92600,
  "aron": 13055,
  "enance": 10431,
  "isting": 11330,
  "up": 455,
  "']=": 20590,
  "/tos": 82045,
  "Ġbackstage": 90825,
  "ĠRobertson": 53596,
  "Ġá»": 106459,
  "-workers": 63384,
  "enas": 28043,
  ".of": 10440,
  "pth": 8658,
  "Streaming": 77609,
  "Ġtribal": 40489,
  "_armor": 85551,
  "midd": 85749,
  "ĠEgypt": 15212,
  "arias": 48213,
  "ĠStrings": 42751,
  "<table": 21668,
  "åħ¬åħ±": 118522,
  "Ġencore": 35597,
  "ĠPutting": 78990,
  "<E": 24774,
  "Ġdistrict": 9474,
  "_Application": 97679,
  ".Attribute": 34875,
  "Ġkys": 123588,
  "Ġagility": 67741,
  "_pres": 33216,
  "Ġcybersecurity": 62542,
  "ĠÐ¸Ð½Ð¾Ð³Ð´Ð°": 120600,
  "Ġsuspicions": 79607,
  "Ġresemblance": 70000,
  "Ġpp": 12086,
  "Ġmonastery": 85861,
  "Aware": 59893,
  "Ġcolonial": 37683,
  "ç§Ł": 111738,
  "Ġmascara": 99478,
  "Ġpap": 26365,
  "Router": 9713,
  "ĠíĬ¹": 103966,
  "åĿĽ": 116634,
  "rs": 5544,
  "ê°ĢëĬĶ": 107368,
  "Ġrecurrent": 65174,
  "Ġvypl": 121075,
  "(gp": 94108,
  "(parameter": 42794,
  "Ġexamines": 49095,
  "ĠStokes": 98620,
  "ĠComputes": 66075,
  "Ġcv": 5661,
  "ĠsÃ¸ger": 62371,
  "ĠÐ²ÑĸÐ´Ð±ÑĥÐ²Ð°ÑĶÑĤÑĮÑģÑı": 124619,
  "Ð»Ð»": 121627,
  "etr": 17820,
  "Ġtragic": 35279,
  "ĠÐ¾ÑģÐ¾Ð±ÐµÐ½Ð½Ð¾": 114255,
  "Ġargues": 29633,
  "ÐŁÐµÑĢ": 99674,
  "chor": 6279,
  "insky": 52541,
  "Ð¾Ð¿Ð¸Ñģ": 119616,
  "Ġcloning": 78966,
  "Ġfalsely": 61456,
  "Css": 41375,
  "Ġcodec": 35747,
  "atab": 2143,
  "Ġyapar": 120710,
  "ĠEFFECT": 63153,
  "ĠÃ¼cret": 107620,
  "Ġ#(": 90266,
  "_runtime": 34332,
  "ĠìľĦíķ´ìĦľ": 126308,
  "rays": 66243,
  "ĠADVISED": 30421,
  "_CLIENT": 23337,
  "ĠGes": 21031,
  "ĠMountain": 19149,
  "ANT": 2891,
  "_recursive": 67342,
  "ubic": 42281,
  "Ġever": 3596,
  "ĠØ¹ÙĦÛĮ": 104400,
  "cite": 68175,
  "Ãªtre": 38816,
  "Ø§ÙĨÛĮØ§": 119396,
  "Ġxi": 38690,
  "ëħĢ": 103284,
  "à¹Ĥà¸£à¸ĩà¹ģà¸£à¸¡": 110604,
  "ĠÐ¼Ð¾Ð¶": 45583,
  "_sleep": 50493,
  "aupt": 52998,
  "fieldName": 45694,
  "remark": 38548,
  "ĠPdfPCell": 91662,
  "ĉdev": 28402,
  ".onClick": 48733,
  "jev": 115429,
  ".builders": 84471,
  "InProgress": 89811,
  "Ã¡tka": 124972,
  "ÑĸÐ½Ð¾": 120262,
  "éĢļè¿ĩ": 68438,
  "pard": 62743,
  "Ġ$(\"#": 6071,
  "ĠIreland": 14990,
  "ĠØªØ²": 122045,
  "<|reserved_special_token_207|>": 128215,
  "GLISH": 65518,
  "Et": 32960,
  "ĠFang": 59027,
  "(h": 3283,
  "Äįek": 103736,
  "ãģķãģĽ": 107726,
  "Ġcampaigners": 94393,
  "\"/>": 13424,
  "Ġcoworkers": 84055,
  "128": 4386,
  "umn": 22082,
  "Ġresolved": 20250,
  "ĠÃ¤r": 19106,
  "ĠMethod": 6872,
  ".Height": 18215,
  "Component": 2238,
  "isu": 63848,
  "Ġbd": 22206,
  "ìĽĲìĿĺ": 123645,
  "Ang": 10976,
  "ä¸ĬäºĨ": 126271,
  "_detector": 72640,
  "æµľ": 113569,
  "ĠnextProps": 68422,
  "ĠngÃ¢n": 108217,
  "Ġnominated": 39048,
  ".Card": 49713,
  "lev": 3532,
  "Ġoverseas": 25355,
  "Ġstom": 20703,
  "Ġpundits": 79306,
  "Ġnave": 44591,
  "ĠBroncos": 42694,
  "ÛĮÚ©": 100885,
  "ĠPAN": 73381,
  "'T": 17773,
  "Ġuri": 13371,
  "_resize": 54470,
  "lv": 22580,
  ".Make": 51233,
  "{o": 33631,
  "ĠGym": 46631,
  "åĩĿ": 118314,
  "ĠjmÃ©": 111095,
  "having": 69666,
  "UpperCase": 21627,
  "(descriptor": 91480,
  "Dis": 4944,
  ".RE": 15056,
  "HEIGHT": 51372,
  "$/,": 67524,
  "Ġcompart": 39667,
  "Ġêµ°": 108362,
  ".pagination": 63713,
  "bih": 41216,
  "ĠAdmiral": 59094,
  "YGON": 75108,
  "Ġ[": 510,
  "_find": 22567,
  "DELAY": 89091,
  "fills": 67267,
  "Ġbp": 27783,
  "Ġsubscribing": 40885,
  "(predicate": 77272,
  "Ġbatter": 8919,
  "Digite": 46587,
  "thr": 61124,
  "á»įn": 80923,
  "=email": 77471,
  "ITH": 4243,
  "ĠArnold": 44312,
  "ĠPainting": 55143,
  "ĠÐºÐ¾Ð½": 38098,
  "ĠTyler": 32320,
  "ĠDepart": 40855,
  "Ġà¹Ĥà¸£à¸ĩ": 121981,
  "Ð²Ð°Ð½": 104471,
  "<?": 1340,
  "ĠÑĤÐ¾ÑĤ": 110796,
  "ORN": 47052,
  "CreateDate": 79532,
  "Û±Û±": 111674,
  "(enable": 94609,
  "VIDEO": 51695,
  "Ġyapan": 109452,
  "ĠSTYLE": 64047,
  "Ġì²ĺë¦¬": 82158,
  "Ġdisclaimer": 18141,
  "ê°Ģ": 20565,
  "Ġlig": 29413,
  "_CP": 47076,
  "Ġcp": 12773,
  "_decorator": 88352,
  "âĢĻÄ±": 116457,
  "¡´": 91657,
  "ĠShooter": 99407,
  "Ġaccrued": 99216,
  "Ġbelir": 101664,
  "_ERR": 10076,
  "Ġclosures": 61000,
  "UCCEEDED": 54116,
  "_ge": 34033,
  "ĠUObject": 56212,
  ".basicConfig": 69897,
  ".pb": 39016,
  "ISON": 53076,
  "Responder": 31984,
  "Ø¯Ø§ÙĨÙĦÙĪØ¯": 105891,
  "ĠLang": 23272,
  "Ġconseguir": 77959,
  "Ġiam": 98248,
  "(KEY": 38176,
  ".DateFormat": 96954,
  "Ġthrott": 81072,
  "Ġfavored": 46603,
  "ĠHorse": 34392,
  "About": 10714,
  "_Show": 80765,
  "ÐµÑĢÐ°Ð»ÑĮ": 111458,
  "Ġloung": 84244,
  "Ġaccordingly": 28178,
  "ĠØ¯Ø±Ø¢ÙħØ¯": 125698,
  "Ġbubb": 90712,
  ">\".": 54046,
  "_job": 20916,
  "OUSE": 58258,
  "ĠNagar": 88294,
  "ĠÄ°slÃ¢m": 124078,
  "_orient": 54593,
  "rd": 6634,
  "ĠStamina": 95372,
  "af": 2642,
  "ĠO": 507,
  "Ġtimed": 26245,
  "<QString": 56505,
  ".leave": 90403,
  "ĠAdjustment": 93049,
  "Ġskincare": 80705,
  "Available": 16892,
  ")new": 97175,
  "ĠìļĶêµ¬": 126999,
  "owment": 76555,
  "Ġfair": 6762,
  "-job": 71048,
  "chg": 67040,
  "country": 11389,
  "à¥įà¤¨": 101495,
  "Ġ){Ċ": 11200,
  "Ð§ÐµÑĢ": 124017,
  "Ġ====": 82967,
  ".addEdge": 66328,
  ".ColumnHeadersHeightSizeMode": 73229,
  "_inside": 73960,
  "Ġmarks": 15785,
  "Identity": 19069,
  "ĠMechanical": 51684,
  "ĺèĽĽ": 114203,
  "Ġnarrower": 91529,
  "Ġcgi": 99932,
  "_fixture": 75509,
  "(ByVal": 24437,
  ".getStart": 78923,
  ".Fail": 58343,
  "UNG": 61102,
  "_gshared": 19083,
  "amsung": 14780,
  ".ToShort": 94858,
  "pectral": 87675,
  "ĠUttar": 86773,
  "ĠDOMAIN": 85686,
  "ĠâĢł": 124232,
  "ÙĨØ¯ÛĮ": 104095,
  "Today": 15724,
  "mak": 49662,
  "Ġjih": 126556,
  "ĠMiddle": 12877,
  "ĠMemo": 57301,
  "ĠTrigger": 31391,
  "-submit": 52315,
  "ĠBN": 46416,
  "ĠCand": 70654,
  "ĠDecom": 97478,
  "Storage": 5913,
  "-bootstrap": 25383,
  "à¸Ľà¸£à¸°à¸§": 126630,
  "Ġwhats": 41209,
  "ĉdefer": 17292,
  "CA": 5158,
  "=end": 62621,
  "Ġvp": 35923,
  "Ġaspiring": 60213,
  "Ġhectic": 91425,
  "And": 3112,
  "ĠRonald": 39748,
  "Fu": 77845,
  "ĠDashboard": 27906,
  "Ġimprovised": 93639,
  "Dates": 56338,
  "ayaran": 74002,
  "Ġsled": 95512,
  "Ġ):Ċ": 21711,
  "ĠYankee": 86676,
  "ĠmÃ¼ÅŁteri": 125731,
  "Ġê·¸ëłĩ": 119879,
  ".Exit": 35458,
  "andi": 65674,
  "Ġclauses": 50198,
  "one": 606,
  ".Uint": 72969,
  "Ġihtiy": 105685,
  "à¸±à¸ļà¸ķ": 122100,
  ".vec": 71972,
  "ĠsÃłn": 117268,
  "ĠØ¬ÙĨÙĪØ¨": 115395,
  "Criteria": 13117,
  "Ġreplace": 8454,
  "-inline": 24554,
  "-windows": 98294,
  "Ġstriker": 45041,
  "alth": 1902,
  "à¹ģà¸Ľà¸¥à¸ĩ": 117978,
  "ĠExecutes": 56642,
  "ĠteÄı": 109758,
  "ĠðŁĺ": 27623,
  "_limit": 15106,
  "ĠHole": 52029,
  "Ġsecre": 19733,
  "_numer": 100101,
  "uels": 61244,
  "ĠIEEE": 40135,
  "ĠCART": 79132,
  ".Arguments": 81208,
  "strom": 35155,
  "Ð´Ð¸Ð¸": 122970,
  ">-": 39743,
  "IGGER": 41361,
  "forms": 10008,
  "ĠPD": 27572,
  "Ġdecrypted": 64061,
  "Western": 55924,
  "Ġshoreline": 99164,
  "ĠçĶŁ": 59363,
  "Ġsliced": 48715,
  "Ġinvitations": 59769,
  "Ġnecessary": 5995,
  "/AFP": 69415,
  "Ġ[[": 4416,
  "ĠØ³ÛĮÙĨ": 115234,
  "Ġpry": 82379,
  "-O": 24540,
  "ctrine": 14061,
  "ĠJad": 73824,
  ".album": 63288,
  ".ly": 28349,
  "(obj": 6922,
  "paged": 64215,
  "Ġlibido": 94482,
  "Ä±ÅŁma": 122395,
  "Wow": 36981,
  "winner": 53245,
  "Sept": 25669,
  "ĠAralÄ±k": 111939,
  "Ġhas": 706,
  "æħĭ": 107328,
  "à¹Īà¸Ńà¹Ħà¸Ľ": 120880,
  "ĠGambling": 86443,
  ".middle": 81364,
  "=config": 47390,
  ".ALIGN": 67068,
  "ï¼ļ": 5232,
  "Range": 6174,
  "Ġrespectful": 49150,
  "Ġlifting": 33510,
  "Ġìĭľê°Ħ": 106243,
  "osu": 111627,
  "ìĦ¤": 102546,
  ".databinding": 48030,
  "ç©¿": 108669,
  "blocks": 22692,
  "dikleri": 126531,
  "Ġmichael": 89006,
  "55": 2131,
  ">\",": 21841,
  "ZW": 82856,
  "favor": 75060,
  ".zh": 90488,
  "Ġgoddess": 52190,
  "ĠØ§ØµÙĦØ§ØŃ": 116385,
  "ĠSnapdragon": 83155,
  "ĠLibya": 38059,
  "evaluate": 48391,
  "Ġspecializes": 46672,
  "Ġrefl": 83535,
  "Ġepub": 65049,
  "Radians": 64946,
  "ĠEF": 45090,
  ".isRequired": 20529,
  ".download": 36481,
  "ĠRelative": 40502,
  "ÑĪÐ¸Ð¼": 106533,
  "ĠMPG": 91498,
  "baru": 90460,
  "IAN": 22774,
  "XMLLoader": 70741,
  "/MM": 38460,
  "Ġcapitalists": 87408,
  "ĠNorwich": 84223,
  "ĥĿ": 30489,
  "Ġamazon": 39516,
  "sorting": 68139,
  "/*----------------------------------------------------------------": 30965,
  "Slot": 20470,
  "ĠÐºÐ¾Ð½ÑĤÑĢ": 105674,
  "æłª": 108156,
  "ĠFollowing": 23548,
  "ĠSyndrome": 57496,
  "Ġgab": 56979,
  "Ġpeptide": 72249,
  ".is": 2124,
  "ĠIso": 88043,
  "Ġmined": 68768,
  "Ġnucle": 31484,
  "363": 18199,
  "noÅĽÄĩ": 72719,
  "Ġlids": 100078,
  "Ġäº¬": 126953,
  "correct": 20523,
  "dependency": 54790,
  "ĠFaction": 91407,
  "Ġhijo": 81145,
  "[vertex": 94584,
  "Ġimposition": 94879,
  "ingular": 42980,
  "Ġwealthy": 28994,
  "ĠØ¨Ø§ÙĦØ±ÙĬØ§Ø¶": 118052,
  "ĠchÃºt": 118157,
  "abstractmethod": 66051,
  "ĠAmes": 96194,
  "ĠBever": 39099,
  ".lab": 56382,
  "topics": 56252,
  "ish": 819,
  "_wo": 97158,
  "Ġjamais": 56316,
  "GetX": 77722,
  "ĉcontainer": 54390,
  "ĠcÃ³": 29876,
  "ÑĢÐ°Ð¿": 120163,
  "experiment": 60529,
  "Ġdok": 42161,
  "ĠMann": 30960,
  "ĠØ§ÛĮØ¬Ø§Ø¯": 108408,
  "ĠExport": 22981,
  "ĠPhysician": 88298,
  "?:": 4925,
  "ĠÐ¿ÑĥÑĤÐµÐ¼": 126510,
  "ç¿": 102048,
  "(=": 121110,
  "ÑģÑĤÐ²ÐµÐ½Ð½ÑĭÑħ": 109405,
  "agements": 62196,
  "VF": 50163,
  "-res": 11849,
  "ĠLoving": 90422,
  "ĠLic": 33675,
  ".getChannel": 100161,
  "ĠbuttonWithType": 84924,
  "amin": 8778,
  "GMEM": 80864,
  "ĠSYNC": 87777,
  "Ġknocked": 33085,
  "ìĸ´": 32179,
  "ĠgameState": 56093,
  "Ġobed": 49290,
  "Ġseguint": 94172,
  "Ġæķ°": 48785,
  "ĠØ·Ø¨ÛĮ": 112793,
  "abancÄ±": 111691,
  "Ġbeforehand": 52159,
  "è¨Ģ": 78244,
  "ĉrows": 69538,
  "erra": 14210,
  "ĠLily": 48390,
  "orable": 25745,
  "BOOST": 37259,
  ".num": 10744,
  "Û²Û°Û²": 115245,
  "preh": 31882,
  "ĠÐ²Ð°Ð»": 115559,
  "Ġworst": 12047,
  "<TextView": 91202,
  "Ð³Ð¾ÑĢÐ¾Ð´": 110434,
  "AutoresizingMask": 58449,
  "_bel": 97861,
  "Ġunleashed": 69364,
  "track": 13432,
  "heads": 36910,
  "Ġreplies": 31737,
  "Ġspi": 28047,
  "ĠÐ·Ð½": 105161,
  "Ġepoch": 16746,
  "ĠTEX": 77324,
  "Ġtrust": 7095,
  "Ġannotations": 33307,
  "Ġelbow": 46811,
  "ĠgoTo": 78697,
  "_itr": 73038,
  "Ġpayer": 70375,
  "ĠYam": 34654,
  "Ġprov": 2605,
  "JS": 12830,
  "month": 10460,
  ".scheme": 79281,
  ".SimpleButton": 90444,
  "ĠDiagram": 36361,
  "ÙİÙĩ": 107602,
  "Ġdiscrete": 44279,
  "Ġinds": 99613,
  "erval": 6283,
  "Ġyp": 77075,
  ".skip": 37696,
  "ĠAaron": 26757,
  "ĠBart": 29627,
  "_macros": 87004,
  ".localtime": 92248,
  "Chicago": 47275,
  ".Sqrt": 71915,
  "Ġintro": 20285,
  "ĠmaxX": 68582,
  "dum": 110465,
  "260": 11387,
  "_rr": 57385,
  "replaceAll": 56960,
  "riangle": 85291,
  "ë¦¬ìĬ¤": 107752,
  "ĠDrawing": 38859,
  "ĠsluÅ¾": 104483,
  "idae": 114405,
  "amas": 29189,
  "ĠÐºÐ¾Ð½ÐºÑĥÑĢ": 111047,
  "/by": 68833,
  "cycles": 49521,
  "ĠÐ½Ð°Ð¹Ð±": 110824,
  "ĠMinecraft": 41330,
  "drFc": 71366,
  "ĠÐ²ÑĸÐ´Ð¿Ð¾Ð²ÑĸÐ´": 102901,
  "')}>Ċ": 87574,
  "quipment": 49979,
  "ĠMonterey": 98495,
  "Ġbeam": 24310,
  "V": 53,
  "Ġcrowded": 39313,
  "Ãłn": 89702,
  "ĠSÆ¡n": 112525,
  "Ð¼Ð°ÑĢ": 114863,
  "Ġsuscept": 37329,
  "æīķ": 124237,
  "Ġhl": 50686,
  "ĠHampshire": 31997,
  "ĉĉĉĉĉĉĠĠĠ": 48223,
  "ĠMaria": 23880,
  ";l": 82728,
  "Ġ['": 2570,
  "ĠReport": 8423,
  ")NSString": 82346,
  "Sidebar": 48178,
  "cean": 11455,
  "à¸Ľà¸£à¸°à¸ĸà¸¡": 119310,
  "SizePolicy": 64278,
  "ê·ľ": 105633,
  "Ġrepro": 53823,
  "ĠÃ¶nc": 106758,
  "à¹Ĥà¸Ľà¸£à¹ģà¸ģà¸£à¸¡": 126583,
  "ĠÐ¼ÑıÑģ": 118748,
  "ĠÐ½Ð°Ð´": 101258,
  "ocom": 12255,
  "ç§Ģ": 106241,
  "ĠCuba": 32777,
  "ĠÑģÐ°ÑħÐ°ÑĢ": 121264,
  "Ã¡i": 100986,
  "contin": 22025,
  "Ġmotorists": 72998,
  "isses": 85460,
  "},čĊ": 11818,
  "_inc": 32385,
  "Ġentrada": 43663,
  "\")));": 72571,
  "events": 12670,
  "$user": 25403,
  "ĠContents": 36962,
  "Ġè´": 104814,
  "-letter": 80468,
  "Ġdirectly": 6089,
  "ession": 1362,
  "XM": 53437,
  "lassen": 71589,
  "Ġundeniable": 81832,
  "ë¬¸ìłľ": 112942,
  "ĠpÃºblica": 89049,
  "Ġparis": 41958,
  "ĠArgumentNullException": 30435,
  "Ġgy": 29720,
  "Mutation": 55098,
  "Ġattracted": 29123,
  "_cliente": 45761,
  "Ġmedicinal": 58041,
  "Ġyorum": 111668,
  "Ġstimulation": 41959,
  "ĠGenetics": 84386,
  "channels": 33525,
  "Tbl": 92425,
  "ĠnhÃ©": 111591,
  "(access": 56287,
  "ĠÙħØŃÙĦ": 110573,
  "ĠParticipation": 64503,
  "Ġjournalist": 23672,
  "']);": 23137,
  "ĠrahatsÄ±z": 121035,
  "ACTER": 38497,
  "_lab": 52928,
  "Å¡li": 118485,
  "Ġbirthdays": 92950,
  "ĠÐĿÐµ": 103750,
  "Î¼Î¿Î¯": 125335,
  "$type": 64707,
  ".orm": 48849,
  "ç¶Ļ": 120321,
  "cdc": 73126,
  "!!,": 94787,
  "its": 1220,
  "ĠLemma": 86910,
  "ĠprÃ©s": 30179,
  "Ġspokes": 11449,
  "Ġurine": 40335,
  "ĠvhodnÃ©": 126631,
  "Ġ};ĊĊĊ": 39597,
  "_favorite": 97844,
  "BTTagCompound": 94475,
  "ĠRip": 36537,
  "æ¨": 100762,
  "æĴ®": 125152,
  "(hdr": 88747,
  "ĠÑħÐ²Ð¸": 111133,
  "})ĊĊ": 9000,
  "Registered": 42530,
  "oyer": 42219,
  "Ġobscure": 40634,
  "ÑĢÐ°Ð½": 35682,
  "Ġcardio": 32844,
  "ĠSke": 63281,
  "ãĢģĊ": 111476,
  "matchCondition": 24926,
  "queueReusableCell": 39659,
  "ØŃØµ": 112588,
  "ĠBounds": 70230,
  ".longitude": 35370,
  "Ġfacil": 58424,
  "_BEGIN": 27480,
  "ĠÑİ": 103512,
  "Ġwhopping": 63969,
  "-sized": 28935,
  "Isl": 59744,
  "NIC": 46047,
  "uard": 11280,
  "ĠÑģÐ¾Ð²ÑģÐµÐ¼": 116597,
  ".console": 48902,
  ".goal": 71698,
  "Î¡Îĵ": 115380,
  "ĠMend": 46211,
  "Ġreconnect": 51136,
  "wchar": 82704,
  "Annotations": 22133,
  "incess": 20141,
  "ĠCaps": 44465,
  "ĠVoc": 87145,
  "}`,": 29450,
  "igure": 10012,
  "ĠcaÅĤ": 91161,
  "æĳ©": 110581,
  "âĢ¦but": 83766,
  "å®¤": 102452,
  "Ġunins": 66203,
  "_Insert": 77517,
  "Ġìĭľìŀ¥": 119262,
  "Ġepoll": 96961,
  "ĠAAP": 75852,
  "ĠFacing": 96418,
  "Jake": 95336,
  "ĠFauc": 97462,
  "âĢĲâĢĲ": 115886,
  "ĠStored": 94885,
  "Úĺ": 100742,
  "Ġæľī": 104408,
  "RW": 57468,
  "Ð»ÑĸÑĤ": 114811,
  "ĠstartPosition": 99442,
  "ĠtÆ°á»Ŀng": 118762,
  "ursions": 76339,
  "Ġvbox": 87077,
  "Ð½ÑĸÐ²ÐµÑĢ": 110320,
  "unda": 27990,
  "heit": 23190,
  "Ġneedle": 31409,
  "ĠÐĴÐ¾Ð»Ð¾Ð´": 114543,
  "ĠÐ¿Ð°ÑĢ": 63780,
  "143": 10290,
  "Ġflute": 96812,
  "woff": 69685,
  "olv": 36415,
  "é¦¬": 103803,
  "Ġgaze": 36496,
  ".bl": 10621,
  "|\"": 48676,
  "Ġtactical": 39747,
  "Ġslavery": 33792,
  "getStatusCode": 77637,
  "_emails": 78873,
  "Ġathletics": 74175,
  ".setStyleSheet": 82827,
  "significant": 91645,
  "ĠØ§ÙĦØªØ§Ø±ÙĬØ®": 120741,
  "ĠQLD": 93667,
  "Î´ÎµÎ¹": 119111,
  "ĠResp": 80886,
  "à¹ĥà¸Ļà¸Ľ": 110856,
  "à¸Ĺà¸¢": 101301,
  "Ġ<:": 49026,
  "ÛĮØ²ÛĮ": 109307,
  "Ġrename": 30174,
  ".setScale": 81805,
  ".have": 34970,
  "Ġwast": 41421,
  "ĠDre": 66110,
  "ertainty": 81246,
  "Ġdated": 30105,
  "ĠVerse": 85168,
  "ÏĦÎ¹ÎºÏĮ": 104464,
  "ĠWINDOWS": 76265,
  "AttribPointer": 79399,
  "Ġdormant": 89460,
  "HasColumnType": 77357,
  "Ġsonraki": 119155,
  "child": 3124,
  "-being": 33851,
  ".club": 98746,
  "}px": 48350,
  "ĠSwords": 89451,
  "ĠParish": 60347,
  "me": 2727,
  "Ġdevast": 23248,
  "names": 11654,
  "ÙĬÙĥØ§": 127663,
  "Ġatrocities": 72336,
  "Ġkonus": 122496,
  "ĠDiane": 54190,
  "ãĥ¼ãĥĵ": 113649,
  "Ġvivo": 41294,
  "Ġexagger": 39030,
  "antis": 38966,
  "ĠÐ³ÑĥÐ¼": 127918,
  "}],Ċ": 65154,
  "ecies": 103152,
  "Proc": 25522,
  "cors": 55072,
  "Ġfilmed": 42508,
  "por": 4406,
  "ĠRTAL": 77260,
  "ìĦ¸ìļĶ": 51402,
  "Ġmeta": 8999,
  "ĠPetty": 95798,
  "-air": 38635,
  "assets": 5271,
  "éĻĨ": 98245,
  "Ġesteemed": 97564,
  "éīĦ": 109673,
  "ĠPerl": 45532,
  "lerden": 104550,
  "(Date": 20584,
  ".sym": 52001,
  "ĠComedy": 44851,
  "Ġfighters": 24080,
  "Ġpercent": 3346,
  "Addr": 14313,
  "_FAILED": 23615,
  "\"čĊ": 5139,
  "_LICENSE": 58660,
  "xcc": 48480,
  "Ġhorrific": 47322,
  "Ġmultiplied": 56016,
  "ĠBeer": 34484,
  "ĠvÃ½Å¡i": 124125,
  "ÐĿÐ°Ñģ": 126995,
  "ĠpÅĻÃŃliÅ¡": 113913,
  "ĠFior": 100103,
  "spaces": 45385,
  "-office": 82227,
  "Ġtrainers": 51191,
  "Ġå¨": 121306,
  "ĠInvisible": 90138,
  "Ġchk": 40342,
  ".inject": 25115,
  "_accessor": 35001,
  "QQ": 49126,
  "ĠhÃ²a": 107575,
  "Ġáº": 109158,
  "ï¼ĸ": 60596,
  "Ġhasattr": 32156,
  "Ġside": 3185,
  "T": 51,
  "ĠÙħÙĨÙĩØ§": 115469,
  "iembre": 54571,
  "_SPELL": 84768,
  "fastcall": 43503,
  "ĠØ¢Ø°Ø±Ø¨": 127569,
  "ĠëĤ¨ìŀĲ": 116831,
  "alyzed": 68942,
  "EDIT": 17379,
  "ĠtÃªn": 105197,
  "Ġtransformative": 87435,
  "æĶ¯æı´": 122521,
  "ĉOptional": 66464,
  "Ġshare": 4430,
  "_statement": 38504,
  "Ġrestricting": 65951,
  "-we": 62441,
  "ologies": 9268,
  "ĠFritz": 91083,
  "ĠCollins": 29770,
  "Ġquelques": 45889,
  "iasi": 98654,
  "(event": 6368,
  "_odd": 75768,
  "ĠsetInterval": 36579,
  "_DONE": 43841,
  "-sk": 46407,
  "437": 18318,
  "199": 2550,
  "Books": 25335,
  "Goals": 94917,
  "uÅŁ": 96632,
  "_DISP": 86575,
  "chin": 60171,
  "ĠLa": 5034,
  "Ġhik": 114419,
  "Ġfilmer": 75680,
  "ÅĻenÃŃ": 102538,
  "Â¿ÃĤ": 115906,
  "ØŁØŁ": 122375,
  "Ġleague": 10966,
  "ĠSOCK": 35651,
  "Ġprescriptions": 65835,
  "nad": 82044,
  ")|": 18419,
  "Ġrelie": 59644,
  "ÅĻe": 100871,
  "ĠtabPage": 88910,
  "ython": 27993,
  "Ġê·¸ë¦¬ê³ł": 107536,
  "-----Ċ": 35864,
  "Ġcollo": 82048,
  "balances": 76527,
  "andatory": 63188,
  "Ġwlan": 79453,
  "åºı": 33144,
  "wordpress": 59315,
  "âĢĶ\"": 93830,
  "ï¼Įæ²¡æľī": 127208,
  "---": 4521,
  "/pkg": 23339,
  "EDI": 23988,
  "Ġcelery": 70121,
  "Ġilet": 109102,
  "answered": 57824,
  "wood": 6798,
  "Ġstyl": 49304,
  "Ġefter": 47580,
  "_guess": 55837,
  "Ġconfrontation": 48853,
  "anc": 1149,
  "_ini": 51606,
  "ÏĪÎµÎ¹": 127248,
  "Summon": 86926,
  "layers": 45298,
  "Ġcared": 42777,
  "ĠëĺĲëĬĶ": 108520,
  "Ġbinaries": 70837,
  "ĠLN": 89282,
  "±Ð¾ÑĤ": 36820,
  "æ»ĳ": 113764,
  "Ġpractitioners": 43195,
  "ĠTokens": 59266,
  "_query": 5857,
  "ĠGAM": 82911,
  "Ġretreat": 31114,
  "_seen": 61768,
  "Ġrecipient": 22458,
  "Ġsd": 21231,
  "+\"/": 28669,
  "ĠØ§ØŃØªÙħ": 118205,
  "Though": 27831,
  "EDGE": 84793,
  "NotNull": 11250,
  "integer": 11924,
  "ĠAshley": 38218,
  "Ġfishing": 20543,
  "IPAddress": 89076,
  "ranÄĽ": 119920,
  "Ġcomplain": 29011,
  "Ġgiáº£m": 103775,
  "Ġipc": 61204,
  "unsigned": 3710,
  "Ġmembrane": 39654,
  "LABEL": 64390,
  "ĠphÃ³ng": 120855,
  "ë¡¯": 117998,
  ".rs": 26721,
  "Ġcomputational": 55580,
  "Ġconsectetur": 36240,
  "missible": 45164,
  "à¹Ģà¸«à¸Ļ": 112688,
  "Ġdrastically": 48863,
  "Ġheavy": 8987,
  "ĠtÃ¤": 51890,
  "Î¸Î®": 105344,
  "Ġorganized": 17057,
  "Ġmondo": 70809,
  "Ġzap": 34078,
  "éľ²": 105651,
  "Ġthematic": 95868,
  "ĠurÄįitÄĽ": 124728,
  "ponible": 97951,
  "hardt": 60382,
  "è¯·éĢīæĭ©": 81506,
  "Ġsacred": 32442,
  ".dd": 57742,
  "iens": 80463,
  "ALER": 89478,
  ".newInstance": 41736,
  "_kel": 60322,
  "ê¸°ë¡ľ": 122211,
  "Ġanglais": 76185,
  "quals": 2422,
  "ĠâĬ": 54125,
  "Ð°Ð²ÑģÑı": 110518,
  "Ð¸ÐºÑĥ": 122322,
  "_revision": 60956,
  "Ġoperated": 24026,
  "ot": 354,
  "ĠUps": 72416,
  "jÃŃt": 110349,
  "gp": 22650,
  "à¹Ģà¸ŀà¸£à¸²à¸°": 122916,
  "Ġ\"')": 68434,
  "ĠgetContentPane": 54676,
  "ĠKardashian": 69107,
  "ĠNokia": 36806,
  "ĠJL": 90535,
  "Ġrarely": 19029,
  "ĠzajÃŃmav": 118799,
  "Ġìĸ´ëĶĶ": 117337,
  "ĠÙĨØ¯Ø§Ø±": 117950,
  "spir": 50177,
  "åĩī": 127312,
  "Ġhydrogen": 35784,
  "à¹ģà¸¥à¸°à¸¡": 127401,
  "Ġopport": 4905,
  "(wait": 65192,
  "ĠÑģÐ¸Ð¼": 104719,
  "ÑģÑĸ": 108165,
  "ĠÎ¤Îµ": 124414,
  "(delta": 37173,
  "Ġlain": 51476,
  "Ġdishwasher": 61433,
  "ĠEmanuel": 77760,
  "quiring": 71194,
  "Ġdefer": 18440,
  "ĠÑģÐµÐ»Ð°": 122146,
  "DECREF": 72607,
  "<Key": 43103,
  "_NPC": 92669,
  "Ġpuzzled": 87420,
  "Ð»Ð¸Ð¼": 127611,
  "ĠClar": 31181,
  "Ø§Ø±ÛĮØ®": 104190,
  "ĠLAST": 48395,
  "rum": 10952,
  "ĠÑģÐµÑģÑĤ": 121842,
  "_validator": 66059,
  "dbcTemplate": 50072,
  ".Subscribe": 83728,
  "ĠAlbania": 95733,
  "_ans": 61901,
  "Ġ}ččĊ": 87829,
  "426": 20363,
  "erty": 1368,
  "ĠEssay": 27047,
  "/ros": 84946,
  "ï¼ĮéĢĻ": 122190,
  "-text": 9529,
  "íĦ´": 95252,
  "Ġìļ°": 101834,
  "Ġcannabinoids": 93986,
  "Conclusion": 44534,
  "ĠCarpet": 72308,
  "Ġfuera": 70775,
  "ĠPatton": 96222,
  "'])ĊĊĊ": 90046,
  "INDER": 61282,
  "duced": 54478,
  "ĠÙħÛĮÚ©": 117736,
  "Forward": 27014,
  "ĠNL": 33260,
  "Ġoptimizations": 82278,
  "_boost": 86013,
  "(LED": 84237,
  "Ġmodel": 1646,
  "æĹ¢": 110577,
  "Ġç¾İ": 105913,
  "ĠFSM": 72067,
  "Math": 8991,
  "ĠÙħØ±Ø§Ø¬Ø¹": 114130,
  "lÄ±ÄŁÄ±nÄ±": 113029,
  "ĠReddit": 27728,
  "ĠinitialValue": 61162,
  "Ġpayment": 8323,
  "Ġmultimedia": 57613,
  "Ġmater": 53251,
  "_SB": 73309,
  "channel": 10327,
  "Ġvigor": 56022,
  "Ġ$Ċ": 25441,
  ")),": 5850,
  "ReceiveProps": 87554,
  "Ġbarbar": 54490,
  "ĠPIL": 43175,
  "/black": 99645,
  "Ġlm": 41338,
  "áº¡ch": 101765,
  "_mut": 30623,
  "Ġproduce": 8356,
  "Ġsaja": 79886,
  "ĠÐ¿Ð»ÐµÐ½": 125623,
  "Ġdikke": 76138,
  "Ġfriend": 4333,
  "_TM": 71323,
  "leyici": 123414,
  "ponge": 37354,
  "Ġocur": 92320,
  "LF": 23433,
  "ÂłÐ³": 123354,
  "ĠbyteArray": 76103,
  "ĠÑĩÐ¸Ð¼": 119435,
  "loquent": 21162,
  "ĠWid": 48740,
  "ticket": 27632,
  "ĠPolicy": 11216,
  "iterate": 42612,
  "ĠÐ¸Ð·Ð¼ÐµÑĢ": 120484,
  "(parameters": 39059,
  "RELATED": 35420,
  "ĠMagnet": 82328,
  "ĠMusk": 40638,
  "pherd": 43631,
  "ãģªãģĦ": 100604,
  "/rs": 92985,
  "à¤µ": 100299,
  "ÑĪÐ»Ð¸": 108648,
  "Ġgangbang": 41854,
  "\");čĊ": 2885,
  "Ġrep": 2109,
  "Ġalguien": 89419,
  "ĠÐ¾Ð´": 53419,
  "Ġfamilial": 98304,
  "ĠRegistr": 75659,
  "Ġplots": 31794,
  "-storage": 63895,
  "|\\": 23813,
  "---------------": 39745,
  "ChildIndex": 89519,
  "Ġdeleting": 34111,
  "ĠPrint": 8377,
  "ativa": 28952,
  "ĠGSM": 68655,
  "ãĢĢãĢĢãĢĢãĢĢãĢĢãĢĢĠãĢĢ": 121926,
  "ĠFUNCTIONS": 53264,
  "Ġadore": 61735,
  "Ġdashes": 88646,
  "Ġmanera": 44992,
  "ĉelsif": 87570,
  "Ġxá»©": 124436,
  "à¸¹à¹Ħ": 126082,
  "à¹ĩà¸Ħ": 113248,
  "ĠSecond": 10657,
  "ĠRef": 8718,
  "æłªå¼ıä¼ļç¤¾": 121450,
  "ĠÐ¸Ð¼ÐµÐ½Ð¸": 125742,
  "Ġpoids": 97418,
  "Ġcanvas": 10247,
  ".`,Ċ": 81107,
  "()='": 99023,
  "/feed": 94830,
  "ÑĩÐ¸Ð²": 103538,
  "sar": 99182,
  "à¹Ħà¸Łà¸Ł": 117417,
  "èĭ±éĽĦ": 124792,
  ",long": 76003,
  "ĠBox": 8425,
  "Ä±ldÄ±": 102564,
  "ĠmainScreen": 67506,
  "Ġeoq": 109043,
  "ĠÑĢÐµÐ³ÑĥÐ»Ñİ": 124455,
  ">();čĊ": 16300,
  "ĠSkip": 26869,
  "ĠØªÙĪØ±": 109104,
  "PÅĻi": 123928,
  "Ġnewcomers": 68558,
  ".mutable": 61359,
  "Ġvá»ĩ": 105159,
  "ĠAdded": 18152,
  "Ġculp": 98025,
  "Ġaiming": 38178,
  "ÐºÐ¾ÑģÑĤÑĮ": 111217,
  "Ġkino": 90355,
  ";}čĊ": 40628,
  "_KEYS": 52351,
  "iper": 13154,
  "Mother": 59978,
  "-double": 69720,
  "ãĥ¼ãģ®": 115247,
  "47": 2618,
  ".authorization": 65088,
  "roof": 76736,
  "Ġshadow": 12737,
  "KeyValuePair": 68586,
  "ĉsign": 70154,
  "æ´Ĺ": 108914,
  "unn": 15278,
  "ĠĠĠĊ": 5996,
  "ÑİÑģÑĮ": 119716,
  ":title": 59749,
  "Ġnihil": 99172,
  "ĠQtAws": 93905,
  "Ġsubstantially": 32302,
  "ÎµÎ¯": 100696,
  "imachinery": 71455,
  "Lane": 99598,
  "ĠKorean": 16526,
  "restaurants": 96237,
  "/UIKit": 24605,
  ">());ĊĊ": 94818,
  "extension": 12709,
  "Ġpau": 84295,
  "hotmail": 56554,
  "Ġsocietal": 59529,
  "çĭ¬": 106063,
  "Ġtruyá»ģn": 104208,
  "ĠJeh": 63033,
  "ÙĥÙĩ": 112575,
  "ĠPause": 50756,
  "raci": 120382,
  "'D": 28805,
  "Î»ÎµÎº": 115208,
  "ë¡Ń": 120591,
  "ĠSebastian": 44609,
  "Ġbeaten": 31394,
  "ĠÐ¿ÑĢÐ¸Ð´ÐµÑĤÑģÑı": 125488,
  "Ø§ÛĮØ¯": 101836,
  "Ġanni": 45674,
  "unto": 26494,
  "Mais": 83493,
  "ĠÒĳ": 122905,
  "Ġconsequat": 85987,
  "ĠØ§ÙĦØ¥": 101169,
  "Ġ.\"": 42448,
  "('')Ċ": 38465,
  "assertTrue": 36737,
  "ormap": 40131,
  "Ġurgent": 34771,
  "Ġvois": 100164,
  "ĠëĦ¤ìĿ´íĬ¸": 108991,
  "_guide": 81507,
  "ĠDaddy": 54546,
  "_crop": 52553,
  "Proof": 32176,
  "_trim": 71125,
  "Ġ''ĊĊ": 46420,
  "ĠBO": 7967,
  "Ġprofessor": 14561,
  "ĠETH": 38842,
  "ĠÐ´ÑĸÑĶ": 126281,
  "ĠÑįÐº": 81757,
  "_credentials": 48496,
  "Ġsinking": 62193,
  "sÃŃ": 104598,
  "Percent": 33110,
  ":'+": 76416,
  "Ġpublik": 125593,
  "EEP": 49964,
  "à¤Ĩà¤Ī": 109159,
  "SqlCommand": 72532,
  "ĠTemplates": 19820,
  "Ġì±Ħìļ©": 114825,
  ":</": 7920,
  "alf": 3181,
  "jÃł": 44424,
  "ë°ĺ": 101738,
  "ĠÐ´ÐµÐ½ÑĮ": 103780,
  "Ġtwe": 14887,
  "ĠeuropÃ©": 95199,
  "produto": 67295,
  "ĠÐ¾Ð±Ð¾ÑĢ": 107648,
  "leton": 15989,
  "ĠOrganization": 21021,
  "Ġrearr": 56427,
  "Ġdegraded": 91978,
  "ĠDiana": 45509,
  "urovision": 64109,
  "isayar": 112305,
  "Ġbothering": 91259,
  "ë³µ": 98934,
  "Ġconnect": 4667,
  "ĉstatic": 7122,
  ".getResources": 49628,
  "ĠSticky": 93743,
  "liches": 96385,
  "Pointer": 9261,
  "Ġcáº¥p": 101386,
  "Ġzh": 60848,
  "ç¢¼": 118715,
  "(æ°´": 112253,
  "rÃ¡n": 109523,
  "çºª": 108142,
  "éģĩ": 110053,
  "ĠTimeSpan": 30258,
  ".tell": 82938,
  "Ġhugged": 94568,
  "<Link": 88595,
  "_Mode": 55461,
  "_pts": 42978,
  "ĠÙħÙģ": 108965,
  "(INVOKE": 95556,
  "?âĢĿĊĊ": 16616,
  "Ø§Ø·Ø¹Ø©": 123509,
  "ĠÏĢÏģÎ¹Î½": 125686,
  "ĠhÃ¨": 120221,
  "-final": 55962,
  "ethe": 19030,
  "Ġconsegu": 56888,
  "<|reserved_special_token_123|>": 128131,
  "ĠLawson": 75951,
  "ï¼ŁĊĊ": 27948,
  "(sheet": 62780,
  "Ð½ÑĥÐ»": 107876,
  "Ġthings": 2574,
  "Ð°Ð½Ð¸Ñħ": 107186,
  "ĠInk": 42183,
  "ĠCached": 75305,
  "ĠHEX": 73321,
  "ĠSolo": 36223,
  "ĠkÃ¨o": 123670,
  "Ġpossibility": 13336,
  "oustic": 35415,
  "ĠGerm": 37835,
  "ĠClayton": 64544,
  "ĠMik": 43342,
  "ROI": 72370,
  "JECTED": 90007,
  "(angle": 30733,
  ".native": 15054,
  "_MESH": 86488,
  "@$": 63160,
  "wei": 28204,
  "services": 13069,
  "ÑĨÑĸÐ¾Ð½": 112867,
  "(form": 17178,
  "Ġ>::": 34913,
  "Ġfastball": 95062,
  "Quad": 44574,
  "what": 12840,
  ".heading": 69458,
  "ãĥĥ": 26269,
  "designation": 89216,
  "ommen": 47746,
  "ĠBlacks": 67588,
  "ĠCoat": 68867,
  "Ġá»§y": 113237,
  "Ġseedu": 96384,
  ".em": 9485,
  "Ġaugmentation": 79885,
  "Ġov": 25568,
  "Channel": 9826,
  "ĉĊĉĊ": 11367,
  "anity": 39370,
  "encing": 11627,
  "Pok": 93276,
  "flake": 64556,
  "harga": 60962,
  "Ġdis": 834,
  "ĠgÃ¶rÃ¼n": 103800,
  "Device": 7130,
  "Ġorganizers": 44318,
  "overflow": 21490,
  "Ġë§ĲìĶĢ": 123660,
  "ĠĠĠĠĠĠĠĠĠĠĠĠĉ": 36657,
  "811": 22588,
  "ĠCASCADE": 98159,
  ";.": 79798,
  "onavir": 117967,
  "Ġ'>": 57007,
  "Dest": 35930,
  "ĠKDE": 76183,
  "aim": 2706,
  "Ġingin": 89011,
  ".Factory": 52108,
  "(Get": 25467,
  "*y": 34347,
  "Ġpardon": 65268,
  "ĠICC": 59332,
  "ìĿ´ëĬĶ": 109516,
  "Erot": 66615,
  "_requested": 73809,
  "ëľ": 112722,
  ".Matchers": 79658,
  "ĉmp": 54330,
  "ĠtokenId": 88138,
  "Ġpll": 84180,
  "Ġcondemn": 40074,
  "ILLISE": 59700,
  "ë¡ľëĵľ": 111614,
  "=\"/\">Ċ": 78077,
  "Ġavanz": 99392,
  "Ġshutter": 49056,
  "();}Ċ": 62455,
  "olle": 55148,
  "Ġcampaign": 4901,
  "rg": 2026,
  "ARGV": 61757,
  "ÙĨØ³": 102693,
  "ĠÑĦÐ°Ñħ": 123735,
  ".idea": 96172,
  "044": 20078,
  "Ø§ÙĬØ±": 107115,
  "Hel": 33813,
  "LCD": 65103,
  "Ġblending": 56941,
  ".Design": 52972,
  "ĠEre": 96113,
  "Ġbude": 102180,
  "-component": 42487,
  "zed": 16284,
  "à¥ĩà¤¤": 101166,
  "_MARKER": 83789,
  "miÅŁti": 109590,
  "Ġcadena": 56092,
  "ĠendPoint": 70574,
  "Ġmeng": 20309,
  "Appointment": 70635,
  "Ġstreamlined": 75160,
  "Ġà¸Ĥà¸Ļà¸²à¸Ķ": 121692,
  "(debug": 43254,
  "ĠAlv": 70046,
  "ĠBadge": 60183,
  "çĤ¹": 28542,
  "Ġgcd": 45958,
  "lÄ±": 26693,
  "Ġnarrowing": 98867,
  "Ø§Ø°": 105171,
  "_num": 4369,
  "-read": 29906,
  "ĠÐ¼ÐµÑĤ": 101432,
  "æ³ģ": 109369,
  "Ġscraper": 89134,
  "å²Ľ": 110611,
  "Ġ/****************************************************************": 100089,
  "Ġben": 3399,
  "HECK": 6635,
  "bigint": 85774,
  "ĠÐŁÐ¾ÑįÑĤÐ¾Ð¼Ñĥ": 112079,
  "Retention": 87429,
  ".design": 37129,
  "udiant": 41939,
  "458": 21209,
  "approval": 55539,
  "());ĊĊĊ": 60580,
  "thermal": 69218,
  "Ġdisg": 33283,
  "ĠÃ§ap": 122670,
  "ĠWAN": 99902,
  "Ġlions": 69132,
  "à¹Īà¹ĥà¸Ĭ": 122977,
  "fur": 84001,
  "ĠØ¯Ø§Ø®ÙĦ": 110515,
  "VALUE": 24771,
  "Ġsayf": 112181,
  ".rules": 44751,
  "/accounts": 84843,
  ".setStroke": 93389,
  "à¸²à¸£à¸ĸ": 103166,
  "Ġviolated": 34521,
  "ircular": 22190,
  "Ġ([": 12005,
  "Ġhemorrh": 71417,
  ".GetData": 59939,
  "Ġadviser": 32853,
  "ĠÑģÐ¾Ð³Ð»Ð°Ñģ": 114733,
  ".used": 84302,
  "-esteem": 65906,
  "(entity": 17803,
  "Ġaccumulator": 57412,
  "study": 56065,
  "æĮĳ": 114099,
  "ĠRegistration": 25532,
  "ĠPoster": 63486,
  "_pdu": 96349,
  "787": 23171,
  "_payment": 27794,
  "ĠmÃªme": 27584,
  "kc": 32478,
  "_BINDING": 86272,
  "ç¶ĵ": 104150,
  "itchens": 49721,
  "-seat": 79181,
  "atisch": 82691,
  "Ġautom": 5113,
  "?!": 27074,
  "GET": 3891,
  "ÑŁ": 100259,
  "ulp": 13136,
  "Ġfacet": 45607,
  "ĠSonic": 44317,
  "RAND": 80146,
  "Ġharmful": 28856,
  "?('": 87956,
  "ĠKazakhstan": 73537,
  "ĠRedis": 35258,
  "General": 15777,
  "Ġretention": 38231,
  "Binary": 22045,
  "ĠsÃ©curitÃ©": 77463,
  ".Begin": 29567,
  ".instances": 82372,
  "ĠâĹİ": 124995,
  "Gap": 13164,
  "ãĥ³ãĥĶ": 118613,
  "Ġhypoth": 45455,
  "<|reserved_special_token_6|>": 128014,
  "Ġrespond": 6013,
  "æŃ¥": 65782,
  "ForResource": 91200,
  "Ġvisitor": 20792,
  "Ġthiá»ĩu": 116711,
  "lands": 8329,
  "Ġæĸ°": 80019,
  "},Ċ": 1613,
  "ĠØ´ÙĪØ±Ø§ÛĮ": 118845,
  "-roll": 87860,
  "cz": 14088,
  "StartTime": 41303,
  "[out": 50797,
  "Christian": 42042,
  "ĉscene": 76766,
  "ĠÐ²Ð¾ÑĤ": 108802,
  "Ã¡o": 78789,
  "ĠIndeed": 23150,
  "Ġ#'": 43137,
  "Ġobserved": 13468,
  "969": 24792,
  "ĠåĨĨ": 110398,
  "ICI": 75176,
  "iffs": 19383,
  "Ordered": 55484,
  "nÃŃ": 55122,
  "ilies": 7751,
  "_loaded": 50305,
  "Credentials": 28123,
  "ìĩ": 122075,
  "ĠÐļÑĢÐ°ÑĹÐ½Ð°": 119911,
  "-Time": 55585,
  "Ġbott": 11176,
  "orks": 74402,
  "Ð¼Ð¾ÑĢ": 112695,
  "Indian": 48664,
  "ĠÑģÐ¿ÑĸÐ»": 127551,
  "_passed": 88505,
  "ijkl": 60879,
  "\\Collection": 56425,
  "ĠEat": 45614,
  ".UtcNow": 59117,
  "ĠCHAPTER": 96424,
  "ĠEstablished": 87350,
  "Ġwidths": 65511,
  "ĠÅŁart": 108770,
  "_numeric": 30518,
  "ĠìĪĺíĸī": 125201,
  "à¸Ľà¸¥à¸Ńà¸Ķà¸ł": 126246,
  ":NO": 38557,
  "Ġà¸Ħà¸ĵà¸°": 117881,
  "ĠRugby": 52002,
  "Ġdomingo": 90540,
  "igslist": 50022,
  "ÏĦÎŃÎ»Îµ": 123689,
  "_Move": 67452,
  "ĠØ£ÙĦÙħØ§ÙĨ": 127362,
  "etc": 12380,
  "Ġperfor": 84868,
  "Ġseizing": 98306,
  "edit": 3671,
  "_dispatch": 44091,
  "æİ¥çĿĢ": 125980,
  "semi": 87698,
  "/front": 85167,
  "ĠIsraelis": 56723,
  "ĠPRODUCT": 39183,
  "GU": 55795,
  "ĠÑģÐ¾Ð¿ÑĢÐ¾Ð²": 121456,
  "Ġtreffen": 52973,
  "\"){čĊ": 52038,
  "Ä±nd": 55598,
  "ë§¥": 127661,
  "ĠChemical": 36424,
  "289": 17212,
  ".visitVarInsn": 56265,
  "ĠTone": 68004,
  "Ġwheelchair": 54618,
  "ehir": 103742,
  "Ġpublication": 17009,
  "Ø®Ø©": 124492,
  "Ã¡zi": 121515,
  "ĠExecute": 21517,
  "ĠTYPES": 83425,
  "ĠBlank": 43541,
  "ĠTester": 77916,
  "Ġinclusion": 28286,
  "ERC": 28534,
  "_distances": 78429,
  "ĠYemen": 33790,
  "Ġherhangi": 108391,
  "ÙģØ§ÙĦ": 127677,
  "Ġaug": 19861,
  "ĠIntellectual": 77956,
  "Fri": 54984,
  "Ġplaster": 63027,
  "ĠTrung": 102746,
  "Ġbullet": 17889,
  "Ġstellt": 98196,
  "ĠØ¹ÙħØ±": 111328,
  "=(Ċ": 86368,
  "Ġcontin": 2018,
  "amping": 31557,
  ">{": 7457,
  "bcc": 70118,
  "istence": 81624,
  "ail": 607,
  "inch": 37850,
  "ãĥĨãĥ«": 113834,
  "ĠKeyError": 39194,
  "ÏĦÎ®": 101666,
  "Net": 7099,
  "kiego": 94837,
  "_MARK": 38016,
  "Ð¬": 105030,
  "ĠÑģÐ²Ð¾Ðµ": 118164,
  "Å¡Å¥": 105109,
  "èĻķ": 109318,
  "Status": 2583,
  "Ġacquired": 19426,
  "-gradient": 43838,
  "odynamic": 61002,
  "ĠchÃ¢n": 107747,
  "Ġexchanges": 30098,
  "REET": 57021,
  ".tabs": 49486,
  "_AT": 8837,
  "ĠlÃ£i": 121114,
  "Surv": 63443,
  "Ġblowing": 41442,
  "************************************************": 47676,
  "ĉmode": 61347,
  "ĠisLoggedIn": 73118,
  "ĠGenius": 78901,
  "éĢĥ": 110074,
  "ĠFew": 44015,
  "ĠbÃ²": 121945,
  "Ġprostit": 11446,
  "\\Auth": 34098,
  "Ġå¤ĸ": 106547,
  "relevant": 98673,
  "æ¤įçī©": 117430,
  "_GROUP": 20734,
  "ÎĳÎļ": 111697,
  "ĠJsonRequest": 69809,
  "ĠLutheran": 83081,
  "tant": 61512,
  "Ġyararlan": 122309,
  "á»¡": 112878,
  "(sys": 18635,
  "ĠìĽĲ": 102467,
  "Ġfits": 18809,
  "sumer": 12023,
  "Apple": 27665,
  "malÄ±dÄ±r": 113457,
  "=torch": 67357,
  "(KeyCode": 42140,
  "åĲ¸": 107246,
  "à¹Įà¸ģà¸£": 127990,
  "(optional": 76291,
  "ĠRoulette": 80604,
  "ĉString": 5087,
  "ĠSemaphore": 89020,
  "Site": 18060,
  "}čĊčĊ": 2634,
  "Ġepoxy": 97744,
  "ĠpÅĤ": 95332,
  "ĠChÆ°Æ¡ng": 120892,
  "seq": 13565,
  "leg": 1978,
  ".cn": 22832,
  "åįİ": 86461,
  "IT": 964,
  "truck": 99418,
  "Ġsubur": 30422,
  ".Embed": 58955,
  "ĠÐ²Ð¾": 100797,
  "-al": 19308,
  "à¤Ĥà¤µ": 114298,
  "Ġtempted": 54980,
  "261": 15602,
  "_VOLT": 82473,
  ".Element": 20743,
  "TypeID": 93081,
  "}=": 52285,
  "ĠÐ²Ð»Ð°": 103038,
  "Third": 38075,
  ",L": 31214,
  "ĠÑĢÑĥÐºÐ°Ñħ": 127052,
  "underline": 46773,
  "\"=>$": 32782,
  "Ġtechno": 89999,
  "_interp": 69811,
  "Median": 80614,
  "Recorder": 48123,
  "ĠÐ³Ð¾Ð´Ñĥ": 103361,
  "cbc": 81866,
  "ĠÑĤÐµÑĩÐµÐ½Ð¸Ðµ": 109742,
  "ëĵ¤ìĹĲê²Į": 114026,
  "Ø§ÛĮØ³Ùĩ": 122937,
  ".isEmpty": 9389,
  "ĠÐĶ": 39903,
  "ALS": 47837,
  "Ġblades": 42742,
  "renc": 63934,
  "rich": 14172,
  "Ġhayata": 126532,
  "routing": 74420,
  "ĠÙ¾ÛĮØ´": 102389,
  "isay": 111153,
  "ĠÐ·Ð°ÑĤÐ²ÐµÑĢÐ´Ð¶": 121236,
  "Coupon": 89152,
  "dge": 92791,
  "mant": 42551,
  "ÑĨÑĮ": 102583,
  "ÙĬÙĦÙĬ": 111616,
  "(saved": 14551,
  "æ²¹": 104754,
  "ĠSSA": 94953,
  "ĠSega": 80949,
  "Ġcalculated": 16997,
  "01": 1721,
  "=E": 86334,
  ".P": 1087,
  "LAN": 24299,
  "ervlet": 4663,
  "Ñĺ": 117356,
  "Ġdeal": 3568,
  "Ġhoping": 16026,
  "'))ĊĊĊ": 81031,
  "å®¾": 109978,
  "Ġcompromised": 44500,
  "OfType": 35796,
  "192": 5926,
  "ĠHIV": 23495,
  "_FM": 93412,
  "Ġdiscovering": 42687,
  "=color": 64892,
  "(low": 58898,
  "aption": 10372,
  "Aws": 48459,
  "ĠPhaser": 64768,
  "Ġ[]).": 62656,
  "Ġguys": 7752,
  "ĠminWidth": 57198,
  "ĠØ¯Ø§ÙĨÙĦÙĪØ¯": 104262,
  "Tabla": 92581,
  "Ġregexp": 42977,
  "AX": 3027,
  "head": 2025,
  "ÙĪÙĬØ³": 109871,
  "Ġbá»ĳ": 105900,
  "_tcp": 46662,
  "à¹Īà¸ĩà¸Ĥ": 105696,
  "mesini": 110966,
  "æŀĹ": 102138,
  "Loaded": 23172,
  "ê°": 14705,
  "Bond": 90944,
  "Ġrespuesta": 44460,
  "Ġkvinde": 79592,
  "IALIZ": 33701,
  "ĠJM": 83152,
  "ĠTool": 13782,
  "MD": 6204,
  "Ġà¸Īà¸³à¸ģ": 111125,
  "amientos": 79409,
  "ictured": 30375,
  "Ġmentoring": 76579,
  "Ġtraders": 35687,
  "Ġ}))Ċ": 29812,
  "ĉtry": 6942,
  "-sidebar": 35228,
  "Ġcompr": 13550,
  "adoras": 74538,
  "ĠFreud": 72634,
  "(XML": 75599,
  "queen": 94214,
  "Ð½Ð°ÑĤ": 107220,
  "ìĨĮ": 44690,
  "MU": 60274,
  ".typ": 50386,
  "Ġgenerating": 24038,
  ".chunk": 48906,
  "ĠArgumentException": 40908,
  "756": 24456,
  "Ki": 73672,
  ".PI": 21010,
  "Ġeher": 94495,
  "esch": 60478,
  "ĠÎļÎĳÎĻ": 116569,
  "LV": 41358,
  "Enabled": 5579,
  "_device": 9385,
  "Ã¬m": 103019,
  "=\"<": 35576,
  "ĠRep": 3402,
  "_deriv": 77646,
  "cia": 25088,
  "abetic": 45938,
  "Ġlend": 39580,
  "Ġinfections": 30020,
  "å®īæİĴ": 121691,
  "pes": 20975,
  "Doctrine": 31595,
  "ounder": 94006,
  ".copyOf": 89934,
  "ï½ŀï½ŀ": 118647,
  "Crow": 95026,
  "ĠVince": 56232,
  "405": 16408,
  "dbo": 21521,
  "ÙĨØ§Ø¡": 109756,
  "æµ·å¤ĸ": 125559,
  "Ġdeliberate": 46072,
  "acons": 76544,
  "Ġ`%": 62500,
  "Ġaspect": 13189,
  "Ġwhiskey": 65354,
  "Ġcasos": 58633,
  "Ġbattalion": 91516,
  "Ġbiri": 105259,
  "Ġsortable": 57875,
  "à¹Ģà¸ķà¸Ńà¸£": 105828,
  "ĠÅ¡": 37524,
  "à¥įà¤¸à¤°": 120063,
  "Ġmort": 10237,
  "dÄĽpodob": 115989,
  "Ġnumeric": 25031,
  ".throw": 55013,
  "Late": 62557,
  "enson": 34237,
  "Ġrecep": 126322,
  "Ġpromoters": 95260,
  "Ġwik": 98275,
  "ĠSitting": 84854,
  "GameObjectWithTag": 86062,
  "ĉlet": 10428,
  "STDOUT": 90596,
  "_cores": 94541,
  "Ð°ÑĢÐ´": 118129,
  "ĠFinancial": 17961,
  "ĠLawyers": 71508,
  "ĠvÃ½sled": 108903,
  "Ġwann": 55605,
  "à¹Īà¸²à¸§à¸§": 127193,
  "ĠÐ³Ð¾ÑģÐ¿Ð¾Ð´Ð°ÑĢ": 109268,
  "ĠÚ©ÛĮÙĦÙĪÙħØªØ±": 112775,
  "_icon": 16022,
  "Ġ--ĊĊ": 60681,
  "ĠVector": 4290,
  "bd": 9117,
  ".Never": 84119,
  "Ultra": 82578,
  "olib": 57703,
  "rico": 56347,
  "ä»¤äºº": 127840,
  "lection": 1191,
  ",www": 46650,
  "Náº¿u": 112663,
  ".connected": 62750,
  "ĠÙ¾Ø±Ø³": 110739,
  "ĠUITapGestureRecognizer": 80985,
  "ĠhÃ©": 89023,
  "ĠPe": 5250,
  "iated": 10234,
  "acked": 11440,
  "ĠRitch": 97982,
  "ĠCLIIIK": 110024,
  "jÄĻ": 36410,
  "}/{": 23284,
  "ĠBaba": 97452,
  "!</": 19203,
  "Ð°Ð»ÑĮÐ½Ð¾": 102660,
  "ĉyield": 46191,
  "Ġdiá»ħn": 106371,
  "âĢĶI": 51757,
  "Ġdisgrace": 64935,
  "Ġcatch": 2339,
  "Ġplaces": 7634,
  "åŁ¹è®Ń": 117263,
  "ĠElaine": 83247,
  "Anal": 63085,
  "Feature": 14180,
  "Technology": 63507,
  "_D": 1586,
  "Ġmayo": 74431,
  "ĠØ®ÙĪØ¨ÛĮ": 122592,
  "Ġfunctioning": 31301,
  "che": 1557,
  "ĠÃ¶zelliÄŁi": 127172,
  "')\";Ċ": 44497,
  "(mt": 82718,
  "Ġvery": 1633,
  "åĮĹ": 49409,
  "GreaterThan": 86820,
  "ĉWHERE": 40263,
  "ĠTestUtils": 85845,
  "-go": 20521,
  "à¤¼à¥ĭà¤Ĥ": 120159,
  "']/": 34187,
  "urile": 93448,
  "ĠROAD": 83293,
  "á»§y": 106430,
  "ĠWATER": 76347,
  "(mean": 46776,
  "Ġdoorway": 70458,
  "éĹª": 120840,
  "åĩłä¹İ": 124282,
  "ourage": 61140,
  "ĠMeasure": 35204,
  "Ġeg": 8866,
  "Legend": 40775,
  "ìĤ¬ê°Ģ": 114333,
  "ĠsÃ³lo": 53288,
  "**,": 98319,
  ".Product": 21240,
  "Ġavailability": 18539,
  "ĠÐĳÐ¾Ð»ÑĮÑĪ": 126837,
  "ĠINTO": 12779,
  "ĠTay": 58628,
  "ÐĴ": 16604,
  "ĠArist": 53029,
  "ĠComputational": 93028,
  "ĠÐ´Ð¾Ð»": 101140,
  "Ġcelebrate": 18890,
  "idth": 1123,
  "ĠRANDOM": 83811,
  "yt": 16820,
  "#region": 30157,
  "ĠsÄ±nav": 116838,
  "Visible": 5834,
  "ĠMom": 22969,
  "iaÅĤa": 95690,
  "passport": 43769,
  "clared": 87351,
  ".lb": 45362,
  ".HE": 93812,
  "ÙĪÙħØ§Øª": 104512,
  "Ġpint": 46746,
  "<num": 60427,
  "ksiyon": 123762,
  "ÑĩÐºÐ¸": 120058,
  "forums": 55159,
  "Ġimpeccable": 89646,
  "ynthesis": 74767,
  "Ġpoison": 21109,
  "gba": 57480,
  "ĠCary": 92664,
  "Ð¸Ð³": 70397,
  "ĠåĮħ": 123631,
  "ç¤¾æľĥ": 123248,
  "piler": 29155,
  "Senior": 48195,
  "ì¢Ģ": 125153,
  "references": 37009,
  "ĠNON": 21219,
  "Ġmechan": 7852,
  "Ã§ok": 105431,
  "Ġà¸Ħà¸³": 126109,
  "SHOP": 79842,
  "Ġinduce": 49853,
  "ÙĪØ³Ùģ": 118737,
  "ÑģÑĤÐ²Ð¾Ð¼": 105168,
  "Ġpurch": 5007,
  "Ġburied": 28016,
  "Ø±ÙĪÙģ": 107383,
  "ĠpÅĻekvap": 122505,
  "Ġzprav": 126275,
  "ìŀ¡": 107198,
  "\"`": 41017,
  ".Pop": 48524,
  "score": 12618,
  "_SPR": 80200,
  "Ġfirmly": 32620,
  "ĠCounsel": 37745,
  "ĠExecutionContext": 86551,
  ".Enqueue": 66725,
  "<main": 91968,
  "AML": 32202,
  "losures": 42306,
  "ĠsluÅ¾eb": 112528,
  "toolbar": 38630,
  "Ġfranch": 16953,
  "ĠØ£Ùħ": 104202,
  "ĠonStart": 58213,
  "regs": 31986,
  "Ġinvestment": 9341,
  "Ġmodelos": 83742,
  "ĠalÄ±p": 123821,
  "ãĥ": 2845,
  "ĠRNG": 73706,
  "Ini": 44425,
  "/--": 61587,
  "Lex": 48878,
  "ares": 5518,
  "ĠíĤ¤": 108652,
  "Ġimag": 6669,
  "ĠFord": 14337,
  "ĠMaul": 94301,
  "ĠOutside": 42251,
  "ĠTimes": 8691,
  "bell": 17696,
  "']>;Ċ": 73977,
  "ãģĳãĤĭ": 105784,
  "Ġairplanes": 76481,
  "abbo": 54650,
  "Joined": 42473,
  "ĠNb": 78583,
  "Ġtekst": 73678,
  "316": 15340,
  "\\Traits": 76134,
  "å¾Į": 74482,
  "Ġê²½": 44215,
  "QueryParam": 85185,
  "(jPanel": 22286,
  "Var": 4050,
  "ĠLiberal": 31158,
  "Caps": 61841,
  "Ġculinary": 58441,
  "Ġragazze": 48699,
  "Ġrel": 1375,
  "Ġmilling": 46472,
  "Ġrespawn": 97132,
  "FFECT": 26105,
  "Ġstarving": 78501,
  "ĠÚ¯Ø±ÙģØª": 109410,
  "=\"Ċ": 44588,
  "ĠEssex": 64158,
  "uÃ©": 96559,
  "ĠUnderground": 54987,
  "ĠÙĪÙĦÙħ": 120278,
  "_hyper": 94516,
  "ĠÑıÐºÐ¾Ð¼Ñĥ": 116230,
  "ĠEmerson": 80554,
  "Ġspouses": 66312,
  "ÑĢÐ¸Ð¼": 101620,
  "Ġhemat": 96849,
  "Clickable": 72911,
  ".drawRect": 86959,
  "OPTARG": 99091,
  "Ġoh": 14346,
  "ramework": 5914,
  ".Unique": 88543,
  "Ġposts": 8158,
  "ÑĢÑĸÐ¼": 108549,
  "ech": 4842,
  "ĠgetCategory": 94675,
  "ĠJur": 39898,
  "æīį": 102280,
  "ĠÐºÐ½Ð¸Ð¶": 121336,
  "gomery": 39330,
  "ĠReviews": 19832,
  "à¤Ĥà¤§à¤¨": 119039,
  "Ġpioneered": 96734,
  "Ġciddi": 115292,
  "Ġbombers": 69920,
  "Ġintercept": 29739,
  "Ġpo": 3273,
  "tres": 45632,
  "Ġcollide": 67190,
  "Ġespect": 95370,
  "izzazione": 87208,
  "emodel": 96748,
  "ĠJacksonville": 49046,
  "Ġcush": 33868,
  ".Dataset": 80456,
  ":',Ċ": 44455,
  "ÑĢÐ°ÑīÐ¸": 120786,
  "Ġsce": 94910,
  "Ð½ÐµÑĤ": 108108,
  "ĠÐ±Ð¾Ð»ÑĮÑĪÐ¾Ð¹": 119343,
  ".status": 4397,
  "ĠInfluence": 76040,
  "bash": 47316,
  "[contains": 53116,
  "_Register": 74224,
  "Bed": 16061,
  "Ø°Ø§": 101463,
  "__,Ċ": 49666,
  "ĠÙĩØ²ÛĮÙĨÙĩ": 114647,
  "Ġà¹Ģà¸Ń": 106976,
  "ĠGall": 25919,
  "leÅŁme": 111805,
  "ĠPresenter": 97323,
  "ĠHISTORY": 62879,
  "æª": 109778,
  "Ġduring": 2391,
  "ĠBlack": 5348,
  ".Screen": 38898,
  "HTTPRequest": 64865,
  "ĠMitt": 33718,
  ".main": 9056,
  "Ġbridal": 81512,
  "UIAlertAction": 57539,
  "toHave": 25751,
  "='/": 22007,
  "è®¾å¤ĩ": 109356,
  "ÎķÎĻ": 107437,
  "_adj": 43659,
  "Ġoffre": 68905,
  "ĠdÆ°á»£c": 126851,
  "Ġwid": 9923,
  "Ġnors": 40302,
  "ĠÐĴÐ°ÑĪ": 127986,
  "Ġdurable": 27220,
  "(empty": 25195,
  "Ġspawn": 18533,
  "-flow": 62413,
  "andReturn": 66905,
  ".Username": 43877,
  "ĠBJ": 87599,
  ".Rect": 33253,
  "è¸ı": 119870,
  "ĠSeverity": 52239,
  "Ġinstanceof": 8243,
  "quÃ©": 64591,
  "ĠVS": 31750,
  "aseline": 50414,
  "riors": 21864,
  "ĠTon": 31816,
  "Ġcompuls": 48206,
  "levard": 43343,
  "Ġhumility": 75372,
  "ĠrÅ¯z": 116603,
  "_snap": 75275,
  "ĠkÃ¬": 120864,
  "Ġreciprocal": 87298,
  "Ġ?>\">": 38851,
  "strings": 19107,
  "ĠCavs": 96735,
  "Ġsous": 32592,
  "_FLOAT": 22218,
  "374": 18265,
  "rz": 53060,
  "Ġdecorator": 51778,
  "ĠÎłÎµÏģÎ¹": 113523,
  "Ġzen": 54562,
  ".hl": 81426,
  "Disconnected": 78121,
  "ĠCrypt": 38547,
  "Ġ}]": 59692,
  "Registers": 93178,
  "allis": 96244,
  "ĠCisco": 43234,
  "ĠQLineEdit": 79749,
  "å®½": 118188,
  "ĠSimilarly": 35339,
  "å·Ŀ": 101701,
  ");čččĊ": 98668,
  "Ġ{|": 42060,
  "Ð¼Ð¾Ñģ": 116651,
  "tons": 35511,
  "ĠÚĨÛĮØ²": 119676,
  "Ġcites": 58273,
  "Ġpsychologically": 96655,
  ".delta": 23375,
  "Ġconclusion": 17102,
  "å§Ĩ": 109216,
  ".realm": 84074,
  "Ma": 30635,
  "<L": 56670,
  "fish": 18668,
  "ĠHiring": 89297,
  "auga": 90624,
  "å¤§éĺª": 116622,
  "ĠÑĤÐµÐ¿Ð»Ð¾": 115689,
  "Updating": 48010,
  "ĠKear": 100138,
  "Ġrukou": 121018,
  "checkout": 34135,
  "à¸²à¸Ĥ": 103902,
  "Ġblok": 123539,
  "vrier": 91137,
  "iskey": 47190,
  "ĠAdjust": 28295,
  "ĠDatabaseReference": 81146,
  "lednÃŃ": 127233,
  "ĠDrill": 77974,
  "ĠÑĦÐ¸Ð½Ð°Ð½ÑģÐ¾Ð²": 118212,
  "ĠSunset": 63790,
  "holm": 34605,
  "-language": 44658,
  "ÃĵN": 52869,
  "_COMMENT": 51056,
  "Ð¾Ð³Ñĥ": 107306,
  ".ACT": 73410,
  "ëĳ": 107194,
  "ÏĢÏģÎ¿": 120518,
  "Ġaller": 48908,
  "æ¬§": 104959,
  "lijah": 76468,
  "$arr": 45139,
  "Ġyerine": 106545,
  "ovable": 33055,
  ".No": 17184,
  "icol": 27561,
  "ÑģÑĮÐ¾Ð³Ð¾": 114847,
  "yr": 11160,
  "/pg": 99334,
  "ĠPension": 81557,
  "Ġtoch": 98798,
  "ãĥ©ãĥ¼": 109554,
  "Ġdaycare": 100254,
  "(æľ¨": 112309,
  "ilent": 69514,
  ".spaceBetween": 84865,
  "/blog": 38562,
  "brew": 22363,
  "exc": 40541,
  "});čĊčĊ": 35183,
  "Ã©es": 14014,
  "ĠolmasÄ±na": 122037,
  "Ú¯Ø±Ø¯": 109381,
  "ĠÏĢÎ±Î½": 120088,
  "/dev": 36161,
  "riers": 17740,
  "Ġemple": 62126,
  "à¤¨": 61196,
  "Ġacids": 33969,
  "à¹īà¸ĩà¸²à¸Ļ": 113935,
  "ĠÎµÎ¹Ïĥ": 123185,
  "asso": 29963,
  ".TAG": 59865,
  "Ġmonopol": 75253,
  "_add": 2962,
  "|unique": 94083,
  "foobar": 51367,
  "ĠitemType": 89891,
  "_CREATE": 26908,
  "_CO": 20201,
  "ishments": 100053,
  "ĠappName": 68919,
  "ĠÐµÐ»ÐµÐºÑĤÑĢÐ¾Ð½": 122951,
  "(commands": 72292,
  "Ġà¤¬à¤¨à¤¨": 126748,
  "zung": 39232,
  "ĠAph": 98408,
  "ĠBesch": 78914,
  "Ġplot": 7234,
  "/sources": 97790,
  "Ġminimized": 82178,
  "Ġeru": 61354,
  "Ġretreated": 92037,
  "interfaces": 30065,
  "ĠPercent": 56448,
  "Ġlong": 1317,
  "Ġcaller": 20456,
  "Ġtraversal": 57402,
  "ĠMash": 69279,
  "ĠChiefs": 45844,
  "Ġdisclosing": 95935,
  "Ø±Ø©": 101341,
  "='';Ċ": 46435,
  "ĠØ³ÛĮØ¯": 116125,
  "Refresh": 14909,
  "Ġevolve": 38680,
  "Ġliteral": 24016,
  "ë£Į": 64356,
  "Ġlongstanding": 74229,
  "ĠSSC": 98465,
  "Wenn": 71294,
  "Ġsert": 113147,
  "Ġyasak": 124196,
  "ĠTask": 5546,
  "(space": 61804,
  "ĠdÃ¼zey": 114633,
  "Ġ[âĢ¦]ĊĊ": 12996,
  "(pl": 37709,
  "ĠÙ¾Ø±Ø¯Ø§Ø®Øª": 115013,
  "ĠÃ§": 18578,
  "ĠQT": 48405,
  "ĠØªØµ": 102256,
  ">čĊčĊ": 10605,
  "ĠGreene": 59174,
  "Ã¼lÃ¼": 113613,
  "ãĢģĊĊ": 28918,
  "riter": 2604,
  "TextUtils": 47352,
  "ValueCollection": 87815,
  "åıĳçĶŁ": 110105,
  "ĉorg": 88725,
  "_tweet": 76519,
  "-project": 34796,
  "ansÄ±": 117545,
  "ergency": 66401,
  "å²": 58699,
  "Ä±n": 16507,
  "Ġcostume": 32519,
  "Ġíı¬": 99969,
  "Ġfired": 14219,
  "ĠElm": 65329,
  "Ġcomentario": 83817,
  "erging": 96396,
  "\")ĊĊ": 5240,
  "ÑĮÐºÐ¾": 112172,
  "-services": 59392,
  "Ġcompliments": 72739,
  "Ġcapital": 6864,
  "Ġpracticing": 36666,
  "Ġgloves": 36516,
  "://'": 67839,
  ");//": 12813,
  "PI": 1932,
  "soup": 90642,
  "Boston": 65432,
  "ĠM": 386,
  "Ġdemographics": 63334,
  "Ġblasted": 63421,
  "ÑĥÐ»ÑĮÑĤ": 66005,
  "Ġprojet": 46494,
  "Alt": 27108,
  "_union": 52721,
  "Migration": 20778,
  "lapping": 91719,
  "ĠThi": 60223,
  "Ġzah": 103127,
  "byter": 72707,
  "CollectionView": 78472,
  "ãĤĪãģı": 114652,
  "Ġmáº¹": 108527,
  "Ġdedic": 57766,
  "Ġthankful": 43788,
  "Ġyacht": 73032,
  "ierten": 78499,
  "164": 10513,
  "@hotmail": 59131,
  "Ġrehab": 27876,
  "-reader": 91579,
  ".setHeight": 91664,
  "IMATION": 62009,
  "(admin": 36777,
  "Ä±sÄ±nÄ±n": 117725,
  "ĠÑģÐµÐ±": 102117,
  "Messages": 16198,
  "ĺ": 246,
  "\"--": 75857,
  ".Blue": 61259,
  "Nike": 92944,
  "iola": 81539,
  ".tip": 79144,
  "_bind": 28561,
  "Ġabbrev": 40615,
  "(binary": 65026,
  ".sendKeys": 72414,
  "Ġquesto": 34560,
  "Ġopenly": 30447,
  "iais": 57567,
  "ãģķ": 30813,
  "Ġvalido": 90415,
  ".Mod": 24002,
  "ĠÙĪÙĩÙĪ": 109366,
  "ĠÏĢÏģÎ±Î³Î¼Î±": 119914,
  "phanumeric": 66888,
  "Ġå¹¶": 127098,
  "AndPassword": 77340,
  "Code": 2123,
  "PACK": 17727,
  "Ġfinalists": 83646,
  "ĠÐºÐ°ÐºÐ¸Ðµ": 117911,
  "bindings": 66595,
  "ĠthÆ¡m": 118196,
  "vvm": 67782,
  "_SP": 18220,
  "elin": 33830,
  "owler": 65428,
  "ĠAppModule": 49637,
  "imizi": 115301,
  "ìĦ¸": 42529,
  ",**": 71079,
  "ooth": 6627,
  "NotFoundException": 14920,
  "ãĥ³ãĤ°": 94550,
  "CUR": 39891,
  "ĠReactive": 40922,
  "ĠTU": 70514,
  "Ġdope": 92412,
  "ĉdf": 86287,
  "Ġinterests": 12034,
  "Ġlonger": 5129,
  "_scope": 24077,
  ".SET": 42367,
  "ĠØ®Ø§Ø·Ø±": 119518,
  "Ã¼ssen": 45061,
  "ĠSpeaking": 45072,
  ",max": 35951,
  "_disp": 51792,
  "ĠFriendship": 73169,
  "ĠCustomer": 12557,
  "aye": 61055,
  "Ġcontinuing": 14691,
  "Ġsinging": 26139,
  "ĠResourceManager": 88369,
  "ĠØªØ§ÛĮ": 122729,
  "ĠĠĠĠĠĠĠĠĠĠĠĠĠĠĠĠĠĠĠĠĠĠĠĠĠĠĠĠĠĠĠĠĠĠĠĠĠĠĠĠĠĠĠĠĠĠĠĠĠĠĠĠĠĠĠĠĠĠĠĠĠĠĠĠĠĠĠĠĠĠĠĠĠĠĠĠĠĠĠĠĠĠĠĠĠĠĠĠĠĠĠĠĠĠĠĠĠĠĠĠĠĠĠĠĠĠĠĠĠĠĠĠĠĠĠĠĠĠĠĠĠĠĠĠĠĠĠĠ": 58040,
  "Ġpersonalities": 44908,
  "Ġconcentrate": 37455,
  "(img": 11268,
  "ĠÄĲá»": 121533,
  "ĠRog": 15617,
  "ĠKl": 29041,
  "Ġmismo": 36994,
  "StatusBar": 45256,
  "Ġgymn": 70221,
  "Ġdistrust": 77086,
  "-int": 20653,
  "Ãºde": 68488,
  "ĠSik": 78449,
  "AVING": 84822,
  "ĠRifle": 48138,
  "Phys": 67171,
  "Ġblast": 21327,
  "Ġtqdm": 40504,
  "Ð¼ÐµÑĢÐ¸ÐºÐ°Ð½": 114495,
  "Ġrodin": 116701,
  "-priced": 85837,
  "ĠÐ¿Ð¾ÑĶ": 127768,
  "Ġsweets": 76657,
  "_per": 5796,
  "hay": 68412,
  "ĠÐ±ÑĥÐ´ÑĸÐ²": 111718,
  "Ġindependently": 29235,
  "Ġurinary": 72735,
  "ĠPsr": 90522,
  "Ġfoundational": 89328,
  "Ġprevented": 32098,
  "Ġwindows": 11276,
  "ĠdÃ¼r": 86052,
  "Ġë§Į": 63207,
  "Ġpacientes": 85024,
  "holds": 54219,
  "à¹Īà¸²à¸Ĺ": 115211,
  "Ġà¤ľà¤¯": 124441,
  "<string": 5053,
  "èı¯": 105189,
  "Ġmysl": 117209,
  "ĠreadOnly": 62551,
  "âĢ¦âĢ¦ãĢĤ": 127891,
  "BOOL": 10611,
  "ĠÃľst": 122983,
  "ĠÐ¾Ð±ÑĢÐ°Ð·Ð¾Ð²Ð°Ð½Ð¸Ñı": 115812,
  "Ġáº¤n": 119466,
  "Ġenrichment": 70272,
  "Ġrestore": 15301,
  "leftJoin": 76761,
  ".surname": 95099,
  "osphere": 66222,
  "ĠLH": 83863,
  "ĠAccord": 80657,
  "ĠÙĤÛĮÙħØª": 105837,
  "ica": 3074,
  "STIT": 26849,
  "à¤ľà¤¨": 109272,
  "Ġagg": 51120,
  "Ġforecast": 18057,
  "Dick": 84582,
  "ĠìĨĶ": 119885,
  "ĠÑĢÐµÐ±": 104791,
  "ĠPolynomial": 76253,
  "Ġmdl": 52800,
  "_bitmap": 42627,
  "anch": 3581,
  "Ġsupply": 8312,
  ">About": 90668,
  "ĠLite": 41965,
  "querySelector": 87367,
  "ĠØ§ÙĩÙĦ": 111637,
  "ĠSok": 85214,
  "ĠÙ¾Ø²Ø´": 110809,
  "ĠRUN": 31860,
  "Verify": 33727,
  "Ð°ÑĨÐ¸Ð¸": 54686,
  "GLIGENCE": 29481,
  "ÏĥÏĨÎ±": 124768,
  "contre": 31400,
  "åĳĪ": 125672,
  "BootTest": 46154,
  "attachments": 46978,
  "engo": 65753,
  "ĠBrilliant": 94374,
  "errorCode": 61429,
  "ĠEva": 55492,
  "Ġ'-')": 70263,
  "Ġcondoms": 79975,
  "ì¡Įëĭ¤": 111340,
  "ilyn": 69582,
  "_Session": 85764,
  "defaultValue": 54202,
  "éĥ¨": 34048,
  "mutable": 31573,
  "Ġent": 1218,
  "Pwd": 55457,
  "ĠDoctrine": 29732,
  "Ã¡tky": 108653,
  "Ġbekannt": 82431,
  "ĠØ´Ùħ": 102692,
  "Ġcomputations": 83699,
  "ĠÑĨÐµÐ»": 107796,
  ".ExecuteNonQuery": 34010,
  "ainty": 18773,
  "ucas": 49946,
  "MO": 10754,
  "Ġbehold": 57215,
  "Ġcommons": 66062,
  "ereco": 35094,
  "ĠNAFTA": 85819,
  "SeekBar": 84491,
  "Ġselenium": 37045,
  "cp": 4777,
  "atable": 15436,
  "ombre": 5626,
  ".isNull": 47006,
  "Î¹ÎºÎ®ÏĤ": 104801,
  "Ġhely": 91215,
  "ĠmouseX": 81990,
  "kup": 102891,
  "Ġomit": 52144,
  "ĠfranÃ§": 42437,
  "Vol": 37461,
  "æ°ĹæĮģãģ¡": 120208,
  "ooky": 67824,
  "irmed": 8600,
  "/pi": 63328,
  "=\"\"Ċ": 34518,
  "Ø¯ÙĩÙħ": 115342,
  "_Width": 78709,
  "Ġ';čĊ": 73573,
  "=result": 75312,
  "_future": 60840,
  "à¸ķà¸³à¸ļà¸¥": 123501,
  "CallCheck": 72296,
  "ãĥ¼ãĥķ": 112694,
  "ï½Ľ": 125023,
  ".Length": 6976,
  "ĠSND": 84636,
  "ĠXt": 46553,
  "Ġsham": 72976,
  "lÄ±ÄŁ": 103064,
  "ĠWholesale": 56516,
  "ĠtextStyle": 74196,
  "205": 10866,
  "ĠnaÃ¯": 95980,
  "ĠReservation": 54412,
  "imators": 72136,
  "ÑĩÐ¾ÑĹ": 118910,
  "ĠRomero": 78487,
  "ulk": 22537,
  "LineStyle": 81633,
  "odelist": 85113,
  "_DATE": 19007,
  "Ġcb": 10059,
  "Codes": 21541,
  "_'.$": 39301,
  "ÄŁÄ±nda": 111219,
  ".Match": 37162,
  "çŃī": 50667,
  "ĠØ¨Ø±ÙĨØ§ÙħØ¬": 118499,
  "-routing": 53256,
  "ĠAdvertisement": 67102,
  "Ġcerco": 72017,
  "Ġprotections": 37424,
  "ust": 592,
  "ĠRodrig": 37485,
  "uglify": 87632,
  "ĠVÃ¡m": 122878,
  "ĠILogger": 52793,
  "Ġdelt": 97350,
  "cul": 3395,
  "ĠjinÃ½ch": 118200,
  "à¹Īà¸²à¸Ħ": 117498,
  "hand": 10888,
  ".accel": 79092,
  "ĠÃºplnÄĽ": 118500,
  "<Type": 36606,
  "_ALIGN": 37788,
  "water": 13284,
  "ÂłH": 119493,
  "([]": 10779,
  "egan": 16133,
  "ĠDamen": 94184,
  "ĠDems": 70691,
  ")));ĊĊ": 23341,
  "ÙİØ¬": 120352,
  "ĠEt": 19421,
  "Ġdh": 35196,
  "ĠConsultants": 91150,
  "accordion": 36437,
  "recursive": 50612,
  ".pm": 41246,
  "Determin": 93748,
  "Ġunseren": 67582,
  "ĠØ¹ÙĦÙī": 100608,
  "ibri": 58934,
  "outputs": 42106,
  "ĠRout": 93122,
  "Ġcro": 14425,
  "Ġcard": 3786,
  ".email": 10048,
  "Ġcompact": 17251,
  "Enum": 10999,
  "ÑĦÑĸÐºÐ°": 111762,
  "Ð°Ð»ÑĮÐ½Ð¾Ð¼": 120631,
  "igmatic": 99830,
  "Ø§ÙģØªÙĩ": 114432,
  "ĠCursors": 94266,
  "Ġsuite": 16578,
  ".size": 2546,
  "aes": 77684,
  "Î¼ÎŃÏĤ": 123780,
  "Ġcareful": 16994,
  "Inset": 59010,
  "ĠCycling": 61070,
  "Ġautof": 45545,
  "Ġencounters": 35006,
  "Ġzat": 104555,
  "ÐļÐ°Ðº": 106523,
  "Linked": 22845,
  "alias": 15305,
  "orate": 38995,
  "UID": 6599,
  "uÃŃ": 65225,
  "ĠApplicants": 98789,
  "_dc": 56947,
  "ypsum": 68726,
  "ĠÎ¹ÏĥÏĩ": 120790,
  "Ġmeille": 31326,
  "Going": 47439,
  "Ġ}}>": 46621,
  "()))": 10340,
  ">Login": 87360,
  "á»ı": 86242,
  "Ġcrates": 82820,
  "Ġvá»«a": 104953,
  "adiator": 68908,
  "ĠÐ´ÐµÐ¼": 119169,
  ".Hash": 15454,
  "idar": 94002,
  "Ġbooths": 92259,
  "ĠYeah": 22335,
  "Ã¨s": 12416,
  "ĠÚ©ÙĪØª": 119264,
  "èĢ¶": 113280,
  "à¸²à¸ļà¸²à¸¥": 123798,
  "SIG": 51731,
  "uebas": 91783,
  "amina": 35150,
  "ĠGLsizei": 80803,
  "Ġnobody": 19093,
  "ÙħØ§Ø±": 113521,
  "Ð¾ÑģÑĤÑĮ": 97747,
  "ĠFieldType": 85714,
  "IRCLE": 65112,
  "vanished": 88857,
  "Ġcriar": 77510,
  "Ġmistr": 93011,
  "Ġpuedo": 81915,
  "ĠpÅĻiÄįemÅ¾": 127371,
  "_car": 27714,
  "bol": 31146,
  "Ġrem": 1323,
  "Ġfinns": 74165,
  "(ans": 34652,
  "-issue": 90465,
  ".setOn": 10763,
  "(actor": 66551,
  "\"][$": 71416,
  "ĠButton": 6739,
  "Ġcrying": 31299,
  "Ġcandid": 5803,
  "ĠCOL": 26659,
  "pixels": 54419,
  "Î»Îµ": 101051,
  "ÐłÐĿ": 123795,
  "ĉfwrite": 70266,
  "ĠEstimate": 73815,
  "{lng": 89854,
  "ĠCentre": 14821,
  "Ġappellate": 98587,
  "DatePicker": 63019,
  "à¥Įà¤Ł": 126734,
  "ĠtamaÃ±o": 81352,
  "ĠÐ¸Ð½ÑĤÐµÑĢ": 98051,
  "ĠBirliÄŁi": 117578,
  "']);Ċ": 5984,
  "ĠNelson": 27562,
  "reon": 50890,
  "Ð»ÐµÐ½Ñĭ": 118198,
  "ĉscale": 71880,
  "/\"": 11474,
  "ĠØ§Ø¶Ø§ÙģÙĩ": 122362,
  "045": 23785,
  "erala": 51081,
  "header": 2775,
  "Ġautobiography": 91537,
  "Ġ{},Ċ": 14915,
  "steady": 72766,
  "Ġlie": 10457,
  "_pb": 32509,
  "/twitter": 83328,
  ".stdin": 44284,
  "ĠNatural": 18955,
  "à¸²à¸Ļ": 100347,
  "ĠyaÅŁanan": 125526,
  "Ġmeets": 20628,
  "GetProperty": 83693,
  ".xls": 75808,
  "Ġ-": 482,
  "ĠtÃ´i": 102598,
  "-indent": 53775,
  "/\")": 98212,
  "ervatives": 79629,
  "ĠÑģÐ°Ð¼Ð¾Ð¼": 118580,
  "ĠLauderdale": 78255,
  "ĠHans": 25844,
  "Ġacclaimed": 50082,
  "Ġoccured": 36042,
  "ĠHaskell": 63276,
  "Ġen": 665,
  "Ġomez": 113025,
  "jed": 121320,
  ".dest": 22211,
  "ĠGest": 54999,
  "_str": 2966,
  "à¸«à¸Ļ": 100832,
  "ĉčĊĉčĊ": 27189,
  "iri": 21336,
  "Ġrac": 9148,
  "ĠÐ¿ÑĸÐ´ÑģÑĤÐ°Ð²": 119158,
  "dc": 7783,
  "iteration": 37822,
  "ìłĪ": 104834,
  "Ġsubprocess": 24418,
  "è¡Ŀ": 127852,
  "ĠDLL": 48292,
  "Ġaby": 43815,
  "?\",Ċ": 36818,
  "Ġblasph": 99159,
  "profil": 92092,
  ".Parse": 9114,
  "Ġ{Ċ": 341,
  "-equ": 63359,
  "æľĢçµĤ": 124042,
  "centaje": 71499,
  "Ġprovide": 3493,
  "usage": 18168,
  "Ġteamed": 61310,
  "tableFuture": 70729,
  ".setTime": 50415,
  "unker": 81029,
  "ĠBean": 34823,
  "producto": 47807,
  "ĠHonour": 96914,
  "ĠYuan": 69984,
  "GUI": 20844,
  "Ġcasino": 12109,
  "Ġministers": 35050,
  "<|reserved_special_token_247|>": 128255,
  "ĠÐ¼ÑĸÐ½ÑĸÐ¼": 126992,
  "Ġsuicidal": 66153,
  "_PANEL": 70088,
  "ĠRakou": 125385,
  ".Floor": 78749,
  "ÏĥÏī": 104899,
  "Ġ...\"ĊĊ": 100158,
  "ĠØ¹Ø¨Ø¯": 103486,
  "Exec": 10427,
  "ologically": 30450,
  "erece": 110106,
  "Ġply": 39673,
  "à¸§à¸¡": 103905,
  "ĠCOMMENTS": 95842,
  "ĠRei": 84241,
  "-handler": 73212,
  "ĠPRICE": 60152,
  "à¸±à¸ļà¸ģà¸²à¸£": 105015,
  "ItemCount": 75869,
  "ĠJulio": 81925,
  "ichen": 29424,
  "Ġpresident": 4872,
  "ieren": 16414,
  "çİĭ": 101538,
  "Ġspawns": 93776,
  "ĠÐ¿Ð¾Ð·Ð²Ð¾Ð»": 121267,
  "Ġmutable": 26889,
  "Ġgehen": 63559,
  "ujemy": 83428,
  "_sh": 3797,
  "ØŃØ¯": 101303,
  "ĉthread": 69314,
  "196": 5162,
  "Î¬Ïģ": 103702,
  "Ø§ÛĮØ·": 111025,
  "åĩºåĵģ": 114421,
  "ĠDidn": 58072,
  "ĠManifest": 40461,
  "ĠAir": 6690,
  "={(": 17237,
  "rors": 32786,
  "SEQU": 26561,
  "/pol": 93850,
  "ĠSamples": 59450,
  "_brightness": 92128,
  "ĠMUSIC": 76073,
  "ĠMediterranean": 38785,
  "Ġbrokers": 46436,
  "ĠCivilization": 91778,
  "_DIG": 34462,
  "WT": 18961,
  "Bel": 22404,
  "Quiet": 96084,
  "ellipsis": 73022,
  "Ġchilds": 89100,
  "assertInstanceOf": 64280,
  "âĸı": 109724,
  "Buying": 95813,
  "ĠUNC": 76355,
  "ÙĨØ³Ø§": 123695,
  "abee": 80212,
  "ĠÐ³ÑĢÐ°Ð²": 124926,
  "District": 48940,
  ")(\"": 62273,
  "Ġmusica": 77687,
  "ardy": 91674,
  "fung": 79706,
  "Ã®": 25108,
  "/contact": 47036,
  "ĠBuddha": 46054,
  "Ġfaction": 37480,
  "+\"<": 96147,
  "Ġvec": 7638,
  "enze": 85191,
  "ĠFRAME": 57516,
  "ĠAad": 80372,
  "ØªÙĬ": 102044,
  "Ġunseen": 64233,
  "ĠADS": 65335,
  "Ġlimestone": 45016,
  "ĠComput": 24019,
  "Ġtelescope": 56925,
  "_Pin": 36553,
  "âĹıâĹı": 101991,
  "chs": 56557,
  "cline": 89034,
  "ä¸ĢèĪ¬": 108936,
  "._Ċ": 26546,
  "ÙĲÙĥ": 120570,
  "à¤¾à¤§": 102744,
  "ĠtvÃ¡": 114108,
  "Ġï½²": 117730,
  ".ph": 2180,
  "ĠØ§ÙħÙĪØ±": 115578,
  "SH": 8758,
  "xi": 11927,
  ".requireNonNull": 73760,
  "intro": 37542,
  "ĠRelayCommand": 77943,
  "ĠRomance": 52256,
  "(phi": 49330,
  "irement": 47668,
  "Ġwarehouses": 83273,
  "Ġfrequency": 11900,
  "ÐºÐ°ÑĤ": 111088,
  "TemplateName": 69682,
  "(Column": 96205,
  "ĠvÄĥn": 103353,
  "rita": 98827,
  "ĠBritt": 64117,
  "calculate": 36697,
  "ĉst": 18895,
  "Ġdivide": 22497,
  "Ġbesoin": 63669,
  "\":\"\",Ċ": 43498,
  "Ġfelse": 125455,
  "Ġwishes": 25223,
  ".join": 5563,
  "ĠÐ¼ÑĸÑģ": 102830,
  "à¸£à¸²à¸¢": 104753,
  "|int": 93104,
  "')ĊĊ": 4713,
  "Ġkutje": 89443,
  "Ġcyan": 58988,
  "\"+\"": 78828,
  "Ġbola": 98287,
  "ĠDylan": 44458,
  "Ġà¸ł": 105044,
  "ķ": 243,
  "ëģ¼": 110833,
  "-term": 9860,
  "ï¼ī:": 124446,
  "Ġä¸ĩ": 105841,
  "ĠTanzania": 69894,
  "/use": 63372,
  "Module": 3413,
  "HE": 1837,
  "Ġfewer": 17162,
  "ĠÐ¿ÑĢÐ¾ÑĨÐµÑģÑģÐ°": 124289,
  "ĳľ": 72543,
  ".nick": 77954,
  "Suit": 63998,
  "]+\"": 53964,
  "ÙĨÙĬØ©": 106364,
  "Ġinitially": 15453,
  "ĠDAMAGES": 16908,
  "ĠArial": 53871,
  "ĠÐ¿Ð¸ÑģÑĮÐ¼ÐµÐ½": 118854,
  "OE": 53965,
  "ä¸²": 52675,
  "iscard": 48660,
  "Ġlateral": 45569,
  "legalArgumentException": 98109,
  "à¹ĩà¸ģà¸«à¸į": 115024,
  "Ġadvertising": 13172,
  "IFn": 51490,
  "ĠØ§Ø³ØªØ®Ø¯Ø§Ùħ": 111294,
  "ĠGetValue": 70021,
  "Ġprosecutor": 36151,
  "Ġdejtings": 72104,
  "Ð¾Ð»Ð¾Ð³ÑĸÑĩ": 106693,
  "ĠDI": 16943,
  "(city": 44602,
  "åħį": 103048,
  "Ġpuesto": 85809,
  "_semaphore": 91355,
  "à¥§à¥¯": 122788,
  "merged": 41454,
  "undry": 28346,
  "West": 24188,
  "Ġmagnets": 73780,
  "Scar": 96056,
  "olkien": 77079,
  "Printing": 39628,
  "Ġtb": 16767,
  "Î¤Î¡": 126416,
  "Ġgranite": 38390,
  "Od": 67408,
  "ĠRational": 55625,
  "Ġouting": 65281,
  "AccountId": 63645,
  "ÙģØ¶ÙĦ": 122008,
  "ĠÄįast": 108113,
  "ok": 564,
  "fuel": 64475,
  "Moder": 69723,
  "READING": 99621,
  "ĠSect": 95866,
  "Ġillum": 47506,
  "Ġcritically": 41440,
  "ĠÐ²Ð¾Ð·ÑĢÐ°ÑģÑĤÐµ": 127679,
  "Ġdesired": 12974,
  "âĤ¬âĦ¢": 48092,
  "Ġcy": 9693,
  "Ġplastics": 68386,
  "ĠÐ²Ð´ÑĢÑĥÐ³": 123838,
  "ç½ĳåĪĬ": 125831,
  "entiful": 79820,
  "destroy": 15886,
  "ĠCLICK": 58332,
  "ĠulaÅŁ": 104267,
  "ĠÏĢÏģÎ¿ÏĤ": 114742,
  "ĠÑģÐ²Ð¸Ð´ÐµÑĤÐµÐ»ÑĮ": 125101,
  ".mesh": 44422,
  "Ġdorm": 30209,
  "Ġdebris": 35098,
  "Context": 2014,
  "*angstrom": 95998,
  "ĠisEqual": 22044,
  "odata": 57269,
  "ĠJarvis": 99620,
  "ĠÑģÑĤÑĸ": 127692,
  "Ġthuá»Ļc": 102962,
  "Ġeerste": 68670,
  "Ġkidney": 39042,
  "ĠtoplantÄ±": 115994,
  "/Login": 55903,
  "411": 17337,
  "ĠHeroes": 38099,
  "Reduce": 51425,
  ".setId": 30150,
  "ìĻ¸": 104065,
  "ĠPorn": 16878,
  "Contracts": 37452,
  "_details": 13563,
  "Ġwhistlebl": 65766,
  "Ġsampled": 49976,
  "nee": 34191,
  "à¹Īà¸ķ": 112992,
  "Authenticated": 27810,
  "izo": 43994,
  "ĠWINAPI": 55010,
  "Ġcita": 88157,
  "ĠConcurrentHashMap": 90175,
  "Ġperforman": 110308,
  "ĠÐ¿ÑĸÑģ": 119694,
  "untos": 50474,
  "ĠÐ³ÑĥÐ±ÐµÑĢ": 123533,
  "å°½ç®¡": 127322,
  "Â»)": 123996,
  "ardin": 54890,
  "ç®¡çĲĨ": 40452,
  "Ġimaging": 32758,
  "Ġamph": 66092,
  "ĠImperial": 31013,
  "Ġsymbol": 7891,
  "FIELDS": 73245,
  "Ġpleased": 18949,
  "Edition": 89956,
  "ĠMazda": 63042,
  "HashMap": 19004,
  "(id": 3809,
  "realm": 70997,
  "ì¿ł": 107872,
  "\">//": 73106,
  "ĠGos": 63481,
  "abled": 2364,
  "Ġmeisjes": 78334,
  ".Bytes": 37968,
  "Ġê²½ê¸°": 107372,
  "erse": 113305,
  "ĠEpic": 40467,
  "ĠroleName": 92047,
  "Ġì£¼ë¬¸": 127264,
  "Ð¡Ð°Ð¼": 120431,
  "Fecha": 30232,
  "Ġneeds": 3966,
  "Ġsed": 11163,
  "ĉvideo": 98047,
  "ĠÏħÏĢÏĮ": 115938,
  "Ð¾Ð»Ð¾ÑĪ": 124015,
  "ÑĩÐµÑģÐºÐ¸": 109859,
  "_NONE": 15250,
  "Ġalumni": 52121,
  "_ORD": 86970,
  "ulado": 85529,
  "ĠNeal": 66549,
  "<Resource": 80915,
  "çŁ¢": 124283,
  "æºĢ": 112624,
  "âĢĻnda": 125214,
  "CMD": 39780,
  "fel": 59367,
  "ĠUs": 4073,
  "Ġconsequences": 16296,
  "ĠkayÄ±": 108243,
  "-moving": 86572,
  "Ġweaken": 33556,
  "{-": 20597,
  "Ø¨Ø¯": 101356,
  "Ø·ÙĬ": 119490,
  "Ġassistant": 18328,
  "çļĦæĹ¶åĢĻ": 109798,
  "``": 14196,
  "Ġjuven": 99545,
  "_outline": 74080,
  ".logger": 16465,
  "stva": 110345,
  "Ġlump": 49629,
  "ĠFeeling": 74658,
  "umption": 61674,
  "pling": 12127,
  "Ġij": 72961,
  "Multiply": 96255,
  "ColumnType": 63538,
  "ĠÐ±Ñĭ": 38760,
  "ĠvÄĽtÅ¡": 109184,
  ".textLabel": 56889,
  "ool": 1786,
  "Ã¸re": 67127,
  "grav": 36490,
  "_ax": 43485,
  ",x": 13095,
  "à¸²à¸Ńà¸¢": 117472,
  "çĸ«": 115075,
  "Ġdein": 96019,
  "Ġnx": 25508,
  "è¿ĶåĽŀ": 32626,
  "ĉresult": 9753,
  "ĠØ¯ÙĪØ±Ø§ÙĨ": 117374,
  ".IS": 11479,
  "Copyright": 13857,
  "_nbr": 79372,
  "erchant": 61043,
  "ĠNXT": 91501,
  "Millis": 18379,
  "ĠÐ¼ÑĸÐ³": 121084,
  "åĲ¯": 69496,
  "ripple": 83473,
  "Ġpainfully": 76699,
  "Ú¯ÙĪÛĮ": 125493,
  ".ResumeLayout": 15905,
  "ê»ĺ": 104049,
  "ĠSummer": 19367,
  "/left": 98189,
  "_out": 6196,
  "<|reserved_special_token_168|>": 128176,
  "ĠVisitor": 56982,
  "Ġbáº£n": 101764,
  "ĠØ±Ø§ÛĮÚ¯Ø§ÙĨ": 117962,
  "Ġ{{{": 49008,
  "orderid": 98661,
  "Ġlandmarks": 61024,
  "Ġtenemos": 71548,
  "AUSE": 98598,
  "Ġnick": 16370,
  ".Fixed": 36671,
  "Ġcute": 19369,
  "commended": 36971,
  "_insn": 80899,
  "ÐµÐ½Ð½Ñĸ": 109628,
  ".managed": 100152,
  "Ġbliss": 59045,
  "workers": 56058,
  "comboBox": 69686,
  "favorites": 79603,
  "ĠBabe": 74448,
  "bins": 40430,
  "Ġpoplat": 119925,
  "Ġexpose": 29241,
  "();ĊĊ": 1454,
  "Detroit": 98393,
  "ĠBerm": 76172,
  "FileName": 11143,
  "Ġmereka": 64593,
  "bookmark": 61475,
  "ĠGrowing": 60780,
  "creds": 86834,
  "ĠSTD": 30959,
  "Ġ\"}\\": 91205,
  "_BLEND": 63863,
  "ĠÐ¨ÐµÐ²": 122698,
  "ä¸īå¹´": 126609,
  "LIC": 107053,
  "Ġequip": 26458,
  "ond": 2159,
  "(dat": 45941,
  "335": 16596,
  "Ġpdo": 91233,
  "Ġreverted": 94693,
  "take": 23609,
  "ãİ¡": 105565,
  ".Mesh": 51255,
  "argout": 61590,
  "\"D": 62528,
  "=\"--": 99398,
  "_timer": 16653,
  "THE": 17673,
  "Ġfn": 5279,
  "Ġsupplemented": 89804,
  "Ġoutlier": 89260,
  "Ġviolence": 9349,
  "ĠÃ§Ä±kart": 127631,
  "(pages": 99822,
  "so": 708,
  "ãĢģãĤĦ": 123334,
  "ĠFileNotFoundError": 96941,
  "CVE": 68902,
  "Barcode": 84306,
  "ToProps": 15727,
  "ĠArchived": 98850,
  "gÄ±": 105534,
  "stÃŃ": 109408,
  "à¹īà¸Ļà¸Ĺ": 114628,
  "ãģĦãģŁ": 102334,
  "ĠLig": 99278,
  "ĠHop": 26634,
  "Ġapplauded": 96728,
  "Ġbert": 68199,
  "ÐµÑĢÐ°Ð¼Ð¸": 117196,
  "ĠgÃ¶z": 102516,
  "Ġpohod": 122325,
  "Ġsolids": 82486,
  "Ġfails": 14865,
  "ĠkterÃ½": 101590,
  "ĠìĹĺ": 120353,
  "170": 8258,
  "Asia": 39563,
  "ĠEOS": 50001,
  "Ġknots": 61317,
  ";font": 28155,
  "ĠglBegin": 94221,
  "coop": 87957,
  "appings": 23903,
  "jpg": 18458,
  "Ġeffortlessly": 69704,
  "ĠØ§ÙĦØ³Ø¹ÙĪØ¯": 113165,
  "Ġwishing": 46227,
  ".USER": 38271,
  "åľ°åĮº": 109224,
  "atte": 63734,
  "ÏĥÏĩ": 108443,
  "ĠServlet": 23999,
  "ĠRae": 90599,
  "Requirement": 76902,
  "ĠSheep": 84008,
  "Ġíŀĺ": 110671,
  "'e": 48968,
  "ìĤ¬ì§Ģ": 105834,
  "ĠÑĤÐ°Ð±Ð»Ð¸": 120921,
  "ĠÏĥÎ·": 108274,
  "Ġnodded": 36065,
  "698": 25169,
  "ĠPlayground": 89692,
  "ĠJulian": 38897,
  "(){Ċ": 3108,
  ".dart": 6943,
  "Ġ($(\"#": 74046,
  "ĠsearchTerm": 90126,
  "935": 26970,
  "ĠHandy": 72659,
  "\\t": 5061,
  "ĠØ¯Ø±ÛĮØ§": 123692,
  "ĠÙħÙĨØ·ÙĤÙĩ": 107243,
  "chest": 27417,
  "Marketing": 68662,
  "=[\"": 29065,
  ".newaxis": 77033,
  "Ð¯ÐºÑīÐ¾": 120602,
  "elor": 70347,
  "ĠÐ½Ð°ÑĤÑĥÑĢÐ°Ð»ÑĮ": 126285,
  "'];?></": 44777,
  ".bytes": 43797,
  "\"bytes": 71691,
  "ĠÐ¡Ð¿": 105782,
  "Ġlightly": 34504,
  "à¥įà¤¦": 101102,
  "naires": 69663,
  ".cache": 20688,
  "Ġaired": 43087,
  "ÙıÙĪÙĨ": 119232,
  "Ġvista": 40136,
  "ĠResume": 34498,
  "Narr": 64379,
  "ĠHUGE": 73756,
  "Denver": 96301,
  "ĠphÃ¡": 109725,
  "Ġreel": 57382,
  "ÂłÐ¯": 114865,
  "eto": 11269,
  "Ġtempered": 90761,
  "Ġterritory": 18455,
  "astes": 28006,
  "âĢĮÙĨ": 113980,
  "Ġxáº¥u": 122327,
  "_ground": 73592,
  "ĠPTS": 97361,
  "Ġdeeper": 19662,
  "Ġnombres": 81698,
  "ĠÑģÐ°Ð¼Ð¾Ðµ": 126391,
  "ç¨į": 94366,
  "ĠÐ¶Ð°ÑĢ": 119236,
  "eyen": 103785,
  "Ġulong": 43091,
  "Ġrevolves": 79476,
  "?v": 23856,
  "ocoa": 34402,
  "Ġhop": 7598,
  "Ġhá»Ļp": 120846,
  "ĠnaÅ¡": 112819,
  "483": 21884,
  "/lib": 8357,
  "ĠXamarin": 45461,
  "perfil": 82171,
  "à¸ķà¸³à¹ģà¸«à¸Ļ": 118140,
  "ĠCellular": 88207,
  ".models": 8399,
  "Ġbribery": 93137,
  "Ġschemes": 31956,
  "Ġhabitats": 71699,
  "Ġscrambling": 85327,
  "ĠØ§ÙħØ±ÙĪØ²": 116185,
  "Poly": 39264,
  "Ġcrispy": 73624,
  "Ġterror": 8818,
  ".summary": 36441,
  "641": 23525,
  "Ġfilmy": 90494,
  "ĠØ§ÙĦÙĨÙĩ": 120914,
  "('.')[": 67212,
  "ĉsizeof": 64535,
  "ĠGiáº¥y": 120689,
  "-this": 61291,
  "Ġindict": 38867,
  ".Lines": 92095,
  "Php": 51244,
  "ĠÐ´Ð¾ÐºÑĥÐ¼ÐµÐ½ÑĤ": 118620,
  "ĠLess": 9865,
  "/Getty": 21560,
  "Ascii": 85235,
  "Ð¾Ð²Ð¾Ð³Ð¾": 104826,
  "ĠnumÃ©ro": 99077,
  "iplina": 83821,
  "ĠØ§Ø³ØªØ§ÙĨØ¯Ø§Ø±Ø¯": 125579,
  "Ġbroadcasters": 94014,
  "WARE": 7818,
  "ĠCheap": 37034,
  "Ġain": 37202,
  "ĠÐ¸Ñħ": 101622,
  "Ġgenera": 84535,
  ".Nil": 60778,
  "bate": 71629,
  ";?#": 126104,
  "PropertyValue": 69734,
  "-cigarettes": 86163,
  "ĠØ§Ø³ØªØ§ÙĨ": 105434,
  "nell": 49565,
  "Ġpenalties": 31086,
  "-produced": 84561,
  "Ġscam": 35726,
  "FC": 6897,
  "Ġéħį": 120590,
  "(Encoding": 86277,
  "feof": 86770,
  "Money": 25821,
  "TITLE": 51428,
  "ĠÐ¸Ð¼ÐµÐ½Ð½Ð¾": 109647,
  "Ġgorge": 98477,
  "(users": 36538,
  "ĠRohingya": 97851,
  "numero": 33715,
  "ĠØ³Ø±ÛĮØ§ÙĦ": 123549,
  "ç«ľ": 127870,
  "az": 1394,
  "([": 2625,
  "Ġà¤ī": 100334,
  "-blog": 61039,
  "Acknowled": 91336,
  "ĠÙħØº": 109254,
  "Ġhalten": 96823,
  "-for": 15548,
  "_Equals": 87667,
  "Ġbreast": 17659,
  "Ġketogenic": 94850,
  "<|reserved_special_token_11|>": 128019,
  "_drvdata": 80644,
  "eco": 55397,
  "estar": 90427,
  "éĽ¨": 106786,
  "849": 26537,
  "miss": 1869,
  ";\",": 33603,
  "-heading": 24224,
  "edom": 8944,
  "onth": 6167,
  "olvable": 89197,
  "ĠØ¨ÛĮÙħØ§Ø±ÛĮ": 117511,
  "Ġå¤ĸéĥ¨ãĥªãĥ³ãĤ¯": 127425,
  "ffective": 40784,
  "Ġ!\"": 97186,
  "={{": 6923,
  "Ġgetaway": 70993,
  "IntervalSince": 90074,
  "ambient": 60714,
  "140": 6860,
  ".azure": 71340,
  "ĠPrototype": 77133,
  "siz": 103384,
  "ĠDevlet": 108492,
  "ĠÐ°ÑĢÐ¾Ð¼": 122310,
  "Ð²Ð°Ð½Ð½Ñı": 102274,
  "Ġcommissions": 54764,
  "ĠHot": 8166,
  "Ġbuys": 50631,
  "allest": 19790,
  "exual": 46279,
  "Î²": 52355,
  "Read": 4518,
  "amples": 4112,
  "è¿Ļä¹Ī": 107029,
  "ĠSpecialist": 40420,
  "Ġpercentages": 54208,
  "(sprintf": 41754,
  "ĠMPs": 37761,
  "Ġtourist": 31070,
  "}else": 7981,
  "vik": 44181,
  "space": 8920,
  "ÐºÐ¼": 118949,
  "_INITIALIZ": 60182,
  "Ġkter": 100228,
  "pile": 12470,
  "Ġmessy": 46946,
  "Ġmedication": 24099,
  "beat": 23019,
  "hil": 76423,
  "Ġbure": 31861,
  "Ġthigh": 39771,
  "à¸²à¸ĺ": 106320,
  "Ġnip": 99570,
  "Ġinventory": 15808,
  "Ð¼Ðµ": 101093,
  "Ġdisciplines": 49255,
  "internet": 86843,
  "éĸī": 119962,
  "$sql": 14745,
  "Ġ\"\\<": 24328,
  "ãĥ³ãĤ¬": 125057,
  "ĠNina": 64988,
  "ĠShaft": 96859,
  "Ġcondu": 76069,
  "Ġrobbery": 44214,
  "ĠÐłÐ¤": 110874,
  "formace": 105804,
  ".way": 91988,
  "à¹Ģà¸¡à¸ķà¸£": 122773,
  "ĠÐ½Ð°Ð´Ð°": 117080,
  "æµ": 27699,
  "(defvar": 90485,
  "cate": 43872,
  "ob": 677,
  "_BOTH": 83818,
  "features": 20922,
  "Ã³m": 51080,
  "Ġscattering": 72916,
  "FromClass": 73240,
  "adlo": 114951,
  "Ð½Ð¸ÐºÐ¾Ð²": 103903,
  "ĠFish": 17019,
  "Ġtik": 87272,
  "Ġdifferentiate": 54263,
  "ĠConfederate": 57457,
  "æ¦Ĥ": 107963,
  "ĠØ§Ø·ÙĦ": 104100,
  "ĠWas": 15148,
  "/scripts": 40472,
  "modx": 96730,
  "Metro": 82014,
  ".FALSE": 89799,
  "å§Ķåĳĺä¼ļ": 118101,
  "ĠMethodist": 68601,
  "Ġsignificant": 5199,
  "'),čĊ": 23431,
  "Sharp": 25023,
  "Ġhuy": 111024,
  "Ġjurisdiction": 29101,
  "ĠØªÙģ": 105154,
  "Ġissue": 4360,
  "ĠnewUser": 47346,
  "ĠmoduleId": 93709,
  "_robot": 60216,
  "Ġipsum": 27439,
  "ĠnÄĽkterÃ½ch": 117428,
  "-/": 67214,
  "Ġwaiter": 68269,
  "ĠsmÄĽrem": 123374,
  "ĠUNESCO": 81876,
  "ĠØŃÙģ": 109504,
  "ĠhandleChange": 39755,
  "ëĬĶëį°": 103170,
  "ĠAnders": 48693,
  "ĠESL": 69422,
  "ĠMer": 8930,
  "things": 58174,
  "éķ·": 101544,
  "ĠTopics": 41994,
  "ĠAkt": 50196,
  "Ġspeak": 6604,
  "Ġvfs": 94041,
  "Ġà¸Ľ": 100958,
  "oreferrer": 59040,
  "ĠmAuth": 89012,
  "Ġtáº¿": 101831,
  "ĠDevice": 14227,
  "Ġå°Ĩ": 121626,
  "_translate": 67481,
  "-dismiss": 18802,
  "iras": 51185,
  "Ġfruit": 14098,
  "Ġorganised": 39433,
  "ĠChrome": 17669,
  "{i": 25182,
  "portfolio": 28258,
  "Ign": 44437,
  "(!(": 34760,
  "Ġï¿¥": 112002,
  "Ġpek": 106472,
  "Ġhabits": 26870,
  "Ġ%Ċ": 33648,
  "nants": 63363,
  "../../": 2817,
  "Ġà¤¨": 100282,
  "éĵº": 127293,
  "ĠpÅĻi": 101138,
  "moth": 68504,
  "ĠrÅ¯zn": 112191,
  "CR": 9150,
  "Ġcontenders": 68739,
  "Ġpriceless": 92044,
  "ĠÐ°Ð¼": 123527,
  "ĠComponentFixture": 29463,
  "Checkout": 56245,
  "ĠnÄĽkdy": 119289,
  "Sl": 7594,
  "itting": 15154,
  "_UPDATE": 23216,
  "Ġballoons": 70580,
  "ĠCOMPLETE": 78131,
  "ERICAN": 90611,
  "ĠMT": 19629,
  "ÑĢÐµÐ½": 103165,
  "Ġboats": 32731,
  "Ġilluminate": 88682,
  "Ġprecios": 84881,
  "ĠGed": 65577,
  "Ġhamburger": 89847,
  "ylÃ¼l": 110409,
  "Ġtofu": 80247,
  "Ġê²ĮìĭľíĮĲ": 123545,
  "/std": 22271,
  "ĉConsole": 42376,
  "sexual": 44687,
  "------------------------------": 86226,
  "Ġkonusunda": 107513,
  "ĠRuns": 51090,
  "ĠUniversal": 26581,
  "Ġraided": 79496,
  "aurants": 35084,
  "ibernate": 19348,
  "(productId": 99062,
  "Ġ#%": 51694,
  "Ġ\"_\"": 33825,
  "Ġviolation": 20535,
  ".filename": 31982,
  "ĠRuntimeException": 21942,
  "Upgrade": 44961,
  "afone": 80394,
  "ruits": 68998,
  "Ġautomatically": 9651,
  "(\"\\\\": 30810,
  "jandro": 73159,
  "Ġpant": 26346,
  "(fh": 90248,
  "ï¼Įä¹Ł": 104587,
  "Ġnov": 6747,
  "çĦ¡": 43568,
  "Ġride": 12141,
  "Ġceilings": 56814,
  "[]{\"": 57052,
  "ç´Ħ": 103664,
  "Ã¡bb": 81799,
  "ophobia": 55608,
  "PY": 38981,
  "Ġswings": 57890,
  "ĠCoding": 49175,
  "shadow": 34052,
  "ĠGoblin": 81264,
  "acies": 27121,
  "Ġsmall": 2678,
  "-editor": 47567,
  "ĉToken": 34399,
  "ĠìµľìłĢ": 111449,
  "alborg": 69302,
  "ĉwin": 69552,
  "HN": 44265,
  "Ø´Ùģ": 110941,
  "ĠAuch": 56548,
  "-legged": 95364,
  "Ġmen": 3026,
  "Ġgar": 7515,
  "ĠØ§ÙĦØ®Ø§ØµØ©": 119583,
  "[:-": 27141,
  "Ġfuturo": 65744,
  "Ġprevalence": 38009,
  "ĠÑģÐµÑĢÐµÐ´Ð¾Ð²Ð¸": 123417,
  "Inside": 25488,
  "schemas": 57643,
  "adapt": 89171,
  "uibModal": 92209,
  "Ġ\"(\\<": 79878,
  "ĠEuro": 20026,
  "Ġblended": 55645,
  "ĠolmadÄ±ÄŁÄ±nÄ±": 117426,
  ".cluster": 41601,
  "Good": 15571,
  "permanent": 98524,
  "ActionButton": 44432,
  "_inf": 27143,
  "ä¸»é¢ĺ": 124010,
  "Ġpaints": 57948,
  "Ġflaming": 85723,
  "\"E": 78299,
  "Ġsup": 1043,
  "Ġencryption": 26542,
  "ĠScan": 32208,
  "Ġæ¯ı": 121391,
  "Ġchecklist": 53673,
  "-columns": 74669,
  "orners": 45380,
  "pz": 67665,
  "DateTime": 7844,
  "ä»°": 121755,
  "ĠAlaska": 28366,
  "ĠÐ·Ð°ÐºÐ»ÑİÑĩ": 120265,
  "ĠìĿ´ìľł": 111436,
  "Ġge": 3980,
  ".keyboard": 54670,
  "Ġhabe": 28826,
  "_wh": 37325,
  "Ø¨Ø±Ø§ÙĬØ±": 120215,
  "telegram": 82769,
  "ffer": 3018,
  "Ġkoc": 126501,
  "vx": 48380,
  "ĠIdentify": 65647,
  "_present": 38076,
  "'E": 89048,
  "Ġdefaultdict": 44008,
  ".toolbar": 48516,
  "Ã¼z": 79691,
  "Ð°Ð½ÑĸÐ·": 117530,
  "á»įt": 112970,
  "atitis": 82801,
  "Ġabnormal": 35663,
  "NÃį": 105481,
  "ĠTales": 54955,
  "owych": 47011,
  "ĠgetS": 74783,
  ".mode": 23841,
  "Accessible": 56490,
  "lerini": 101611,
  "Ġcasa": 25233,
  "Ġits": 1202,
  "ĠØ¨ÙĩØ¨ÙĪØ¯": 125145,
  "realloc": 82690,
  "ertura": 56970,
  "Ġdelays": 32174,
  "ynchronize": 53887,
  "Fund": 59440,
  "ĠRegisters": 55874,
  "(..": 57522,
  "Ð½Ð¾Ð´": 125107,
  "ifferential": 69757,
  "<|reserved_special_token_126|>": 128134,
  "ĠGuitar": 47759,
  "ÑĸÐ³": 104769,
  "Ġcoolest": 74534,
  "Ġcreations": 53862,
  "194": 6393,
  "Ã¼yle": 116375,
  "ĠbÃ©nÃ©": 84233,
  "Ġsrd": 118484,
  "ĠFellow": 37946,
  "ĠÚ©ÛĮÙĦ": 108535,
  "ĠCylinder": 87762,
  "Ġruh": 114210,
  "ĠÎµÎºÎµÎ¯": 115569,
  "Ġration": 66901,
  "Ġescort": 6286,
  "Ġwashed": 38593,
  ".route": 12105,
  "ÄĽtÅ¡": 126252,
  "().'/": 85665,
  "ÏĩÏĮ": 127464,
  "ĠAbbey": 65555,
  "ÅĻi": 101221,
  "Ġmerges": 82053,
  ".unsubscribe": 57499,
  "coon": 73335,
  "Ġtrunc": 63950,
  "<src": 21392,
  "Ġì°¾": 107364,
  "ValidationError": 81653,
  "ĠvÃło": 87239,
  "Ġmerge": 11117,
  "Ġre": 312,
  "ÂŃtion": 69705,
  "ĠÛĮÙĪØªÛĮ": 121510,
  "-Ð¤": 117658,
  "ĠOAuth": 39416,
  "Ø±Ø¯Ùĩ": 106129,
  "?action": 58887,
  "ĠViol": 30555,
  "_managed": 80989,
  "Ġdwelling": 51688,
  "_qs": 81838,
  "Ð½Ð¸ÑģÑĤ": 121458,
  "citation": 84247,
  "âĶĢâĶĢâĶĢâĶĢâĶĢâĶĢâĶĢâĶĢ": 57906,
  "æľº": 33748,
  "Ã¶r": 9603,
  "xDB": 83444,
  "ĠRisk": 32388,
  "à¸¸à¸¡à¸Ĭà¸Ļ": 127931,
  "acers": 73797,
  "ĠWEIGHT": 96920,
  "Ġnamespaces": 59191,
  "oled": 42831,
  "Ã¢u": 101208,
  "Remaining": 55845,
  "ĠÐ´Ð½Ñı": 107332,
  "Ġyaml": 33346,
  "Ġå®ĺ": 125142,
  "ĠÐ¿Ð°Ðº": 120311,
  "Ġphysique": 64441,
  "/{}/": 93609,
  "Sen": 20190,
  "Ġtripod": 92154,
  "Ġ//@": 40581,
  "illegal": 77098,
  "Ġnoss": 79730,
  "ĠHL": 53587,
  "ĠCoul": 67948,
  "encial": 45412,
  ".assignment": 83823,
  "áº¯p": 103968,
  "æķ´": 64531,
  "BL": 9574,
  "Ġbeer": 13179,
  "Ġsexkontakte": 87378,
  "eksiyon": 115810,
  "ÑĤÑĥÑĢÐ°": 123990,
  "ĠÐĻÐ¾Ð³Ð¾": 121742,
  "ĠØ«": 101397,
  "NIEnv": 36123,
  "Ġsurface": 7479,
  "KNOWN": 20196,
  "814": 25498,
  "ĠpÅĻitom": 122699,
  "Ġsmallest": 25655,
  "Ġtratamiento": 89745,
  "Ġveel": 51237,
  "à¤Ĺ": 100280,
  "ĠDeÄŁ": 120517,
  "ullen": 42574,
  "Ġcollaboration": 20632,
  "Ġcov": 22590,
  "Positive": 36590,
  "SharedPtr": 87335,
  "ĠåĪ¶": 118199,
  "ä¼¦": 109522,
  "-python": 73029,
  "ĠÎµÏĢÎ¯ÏĥÎ·ÏĤ": 118779,
  "ĠMuk": 70319,
  "tero": 91489,
  "Filtered": 68410,
  "Ø§ÙĥÙħ": 125630,
  "Ġcat": 8415,
  "(off": 86203,
  "Ġlang": 8859,
  "leading": 21307,
  "_embeddings": 64872,
  "tgt": 86326,
  "æį¢": 72234,
  "ĠÐ¿ÑĢÐµÐ´Ð¿Ð¾Ñĩ": 121994,
  "lsen": 61088,
  "ResourceId": 95938,
  "ĠUPPER": 97412,
  "PathComponent": 61168,
  "Ġpermutation": 59541,
  "ĠHimself": 66569,
  "ãĥģ": 78459,
  "_payload": 33913,
  "ØªØ±ÙĦ": 113022,
  ".pass": 35586,
  "Ø§ÙĦ": 32482,
  "'],ĊĊ": 81494,
  "GuidId": 89274,
  "_avail": 78067,
  ".DataVisualization": 90072,
  "/shared": 27038,
  "ĠColombian": 84653,
  "ouncil": 6829,
  "Ġserta": 93719,
  "ĠjejichÅ¾": 125903,
  "Ġprodutos": 62962,
  "174": 11771,
  "Ġgypsum": 88680,
  "uco": 95514,
  "Î¶ÎµÎ¹": 122449,
  "âĢĻna": 123452,
  "Ġdifferent": 2204,
  "Ġprevention": 27344,
  "âĢĻacc": 88851,
  "EMPTY": 33958,
  "rtype": 33613,
  "learner": 94695,
  "ValuePair": 23256,
  "ĠMATRIX": 69659,
  "Ġsexdate": 63002,
  "Ġmaster": 7491,
  "ĠëĽ°": 123151,
  "Ġcoding": 11058,
  "READY": 46678,
  "Ġcriticisms": 63836,
  "ÑĨÐ°ÑĤÑĮ": 121776,
  ".mark": 18913,
  "vw": 35531,
  "ĉhelp": 88740,
  "ĠIsland": 10951,
  "ĠWeaver": 67372,
  "cycle": 22352,
  "à¸¥à¸²à¸Ķ": 127330,
  "Trial": 83023,
  "Ġgeek": 56739,
  "Ġforgive": 44491,
  "observer": 31830,
  "Tu": 54071,
  "448": 19956,
  "(timestamp": 52127,
  "Ġà¤ķà¤ª": 110374,
  "Translation": 25416,
  "ĠsÄ±r": 108259,
  "'))": 3874,
  "amics": 79278,
  "dub": 121988,
  "-hot": 60547,
  "los": 2353,
  "flowers": 89770,
  "à¥Īà¥¤": 100436,
  "ĠNovel": 53976,
  "Ġgranularity": 97097,
  "ĠÎ³Î½Ïī": 119975,
  "ĠÐ¾ÐºÐ¾Ð½": 113140,
  "_exist": 37006,
  "Ġfrance": 48687,
  "ĠopÄĽt": 111263,
  "ãĥ¾": 103639,
  "ĠRonaldo": 65515,
  "ĠØ§ÙĦÙħÙĦÙĦÛĮ": 125984,
  "incare": 67003,
  "dm": 14170,
  "ACHER": 99236,
  "Front": 24284,
  "amaz": 109931,
  "_clients": 57999,
  "_HEL": 70335,
  "Ġbillion": 7239,
  "Ġhone": 52122,
  "ĠÙ¾Ø°ÛĮØ±": 115980,
  ".blur": 88501,
  "Ġcivic": 44973,
  "988": 24538,
  "dup": 22675,
  "åĭķ": 91875,
  "ĠØ´Ø¹Ø±": 119214,
  "Ġstav": 75335,
  ".run": 7789,
  "iphers": 83177,
  "ĠAVC": 70418,
  "ÃŃlia": 76472,
  ".Bean": 46633,
  "ĠÙĨØ³Ø¨": 105056,
  ".hot": 58802,
  "Ġboyunca": 109710,
  "Ġswirling": 93378,
  "ĠSpecifies": 46080,
  "ĠglColor": 70936,
  "ê²½": 66406,
  "_INFO": 9245,
  "Ãºmeros": 65018,
  ".Program": 81354,
  "Ġcreate": 1893,
  "Ġwnd": 81532,
  "Formats": 45699,
  "ÙĪØ²Ùĩ": 112030,
  "âĢĿâĢĶ": 63750,
  "Ġsir": 28146,
  "ĠJDK": 98525,
  "ĠdÃ¼ÄŁ": 126353,
  "ĠArrival": 93198,
  "ĠÐ²ÑĸÐº": 121543,
  "ĠProjectile": 84702,
  "ahrung": 66324,
  "ehr": 56088,
  ".Toggle": 81800,
  "kal": 36641,
  "Ġunary": 76778,
  "Ġstamp": 21899,
  "FIRST": 68892,
  "UCT": 10834,
  "Ġdeux": 26633,
  "Ġcontingency": 83549,
  "ĠuÅ¼ytk": 89424,
  "Ġtem": 1592,
  "ëł¥ìĿĦ": 116688,
  "ĠSentinel": 57893,
  "Ġhurting": 48389,
  "Ġcooking": 17677,
  "Ġdreaded": 83590,
  "ê³¼ìłķ": 121199,
  "ĠØ¥ÙĦÙī": 101095,
  "Ġallow": 2187,
  "Defs": 57131,
  "ambio": 65758,
  "ĠEDIT": 33357,
  "Æ°á»£u": 118573,
  "ĠSurvey": 24507,
  "EEE": 33937,
  "ĠCoconut": 72379,
  "Ġ&,": 53053,
  "ĠBRA": 74863,
  "arching": 83385,
  "ĠLearn": 15281,
  "ITO": 90259,
  "Ġplaylist": 27889,
  "ĠnewValue": 25148,
  "Ä±ÅŁÄ±k": 109819,
  "ĉtb": 63942,
  "Cri": 99992,
  "Å¥an": 126360,
  "Ġzelf": 60111,
  "Ø§Ø±ÙĬØ©": 110092,
  "Ġmacro": 18563,
  "gil": 61887,
  "ÑĢÑĥÐ½": 113678,
  "fabs": 51247,
  "Ġcine": 80852,
  "ĠÐļÐ¸ÑĶ": 118873,
  "à¸ªà¸°à¸Ķà¸§à¸ģ": 122568,
  "ÑİÐº": 122948,
  "Ġmanten": 90990,
  "?\"": 7673,
  "Albert": 67722,
  "Ġrealities": 50446,
  "ORIZATION": 84378,
  "EDIUM": 51886,
  "ĠâĿ¤": 71570,
  "ĠØ§ÙĦØ¬Ùħ": 108797,
  "ingt": 76019,
  "ĠUtility": 26230,
  "ÙĬÙģØ©": 121366,
  "à¹ģà¸Ĺà¸Ļ": 117115,
  "Ġrichest": 57471,
  "Ġtantr": 64107,
  "Ð¼Ñĸ": 100691,
  "Ġamis": 87892,
  "fos": 51788,
  "Ġfacial": 28900,
  "ETH": 7780,
  "çİ°": 47551,
  "ENUM": 69842,
  "/login": 16951,
  "/********************************************************": 67259,
  "ĠCrane": 73999,
  "ĠÑĤÑĥ": 105396,
  "ĠParallel": 50372,
  "ĠAccessed": 98400,
  ".out": 2594,
  "Ġdirname": 31008,
  "é½Ĳ": 114796,
  "ĠzÃ¡kona": 108998,
  "ĠÐºÐ¾Ð½ÑĤÑĢÐ¾Ð»Ñİ": 118507,
  "(Parcel": 83272,
  "retched": 62837,
  "ĠVolley": 78279,
  "Ġsteps": 7504,
  "_display": 15169,
  "-hop": 49819,
  "Ġxy": 31884,
  ".Native": 69724,
  "ĠAtlantis": 88035,
  "ĠÚ©Ø³ÛĮ": 114586,
  "vatel": 108017,
  "ĠBeste": 70451,
  "ìĺ¤ëĬĶ": 125301,
  "Ġhexadecimal": 70822,
  "snippet": 58715,
  "ĠPROVID": 15843,
  "generate": 19927,
  "ĠARC": 71444,
  "Ġ;-": 90608,
  "Ġdetr": 35453,
  "_PRE": 17883,
  "Ġthoroughly": 27461,
  ".Pod": 89923,
  "Ġalert": 5225,
  "ĠÙħØ´ÙĩØ¯": 122490,
  ".habbo": 79358,
  "oplast": 92335,
  "Ġencountered": 23926,
  "ĠkullanÄ±lÄ±r": 120480,
  "á»ķi": 98616,
  "åı°": 55038,
  "Ġfoster": 31087,
  "Ð¾ÑĩÐ½ÑĭÐµ": 120497,
  "-det": 92004,
  "ĠPip": 78482,
  "Ġ}))": 88871,
  "@api": 91929,
  "éľĢ": 59462,
  "ĠçĪ": 110233,
  "iti": 12583,
  "ĠOhio": 14689,
  "ĉNdrFc": 71664,
  ".CREATE": 82013,
  "ĠhÃ¶": 43859,
  ".performance": 88230,
  "âĢĮâĢĮ": 111206,
  "ordo": 52372,
  "ĠalÄ±n": 103056,
  "Ãłnh": 49391,
  "Use": 10464,
  "conditions": 16902,
  "@stop": 48179,
  "835": 23424,
  "odesk": 72324,
  "ĠdoÄŁru": 103258,
  "ĠìĻ¸": 103807,
  "æĶ¹": 23226,
  "Ġgrac": 92566,
  "_MONITOR": 82834,
  "ÑĢÑĥÐºÑĤÑĥ": 106713,
  "ÂłÐŀ": 122329,
  "ãĤ·ãĤ¢": 114741,
  "ĠDiet": 27304,
  "ivity": 1968,
  "ordered": 10767,
  "Calcul": 59008,
  "_Property": 69453,
  "kim": 58993,
  "Ġsexism": 69095,
  "_definitions": 85981,
  "ĠØ´Ø±ÙĪØ¹": 115288,
  "(fm": 92744,
  "bour": 15747,
  "ëĦ¤ìļĶ": 108231,
  "Ø³ØªÛĮ": 111039,
  ".booking": 92413,
  "ĠgeÃ§": 77211,
  "Ä©nh": 104939,
  "ĠTok": 22164,
  "Ġshall": 4985,
  "ToolStripMenuItem": 17197,
  "lue": 120040,
  "tual": 120895,
  "ĠGeorge": 10058,
  "ellan": 85886,
  "orraine": 91122,
  "licated": 14040,
  "Ġgraphs": 40099,
  "reetings": 57617,
  "Ġderby": 91770,
  "Ġshaking": 38839,
  "ĠÐ¿Ð»Ð¾Ñī": 111015,
  "REGION": 78531,
  "Ġsmoker": 78320,
  "Ġinserting": 39398,
  "ĠYe": 32269,
  "ĉfail": 64152,
  ".getNode": 47333,
  "ĠFAG": 87280,
  "Ġnghá»ī": 112547,
  "_async": 29446,
  "Ġbrief": 10015,
  "ĠHabitat": 99688,
  "[url": 76250,
  ".transfer": 50528,
  "Ġbuoy": 75720,
  "Ġdiscover": 7142,
  "rowad": 83387,
  "Ġefficiently": 30820,
  "tipo": 21885,
  "jl": 44970,
  "ĠTransportation": 30978,
  "ESTAMP": 31755,
  "Ġcliffs": 86949,
  "-spec": 58894,
  ".JPanel": 35943,
  "ĠÐºÐ¾ÑĢÐ¼": 120422,
  "ĠtÃ©c": 87263,
  "Sortable": 89452,
  "(\"`": 94414,
  "Iraq": 97818,
  "Ġolmaz": 116363,
  "ĉme": 50394,
  "ĠØ¨Ø´": 105367,
  "authenticated": 58807,
  "(diff": 38224,
  "ĠFamily": 12517,
  "Ġweitere": 62650,
  "Ð¾Ð²Ð°Ð½Ð°": 122876,
  "Ġweap": 6289,
  "Ġconflict": 12324,
  "ĠÐ·Ð°Ð¿Ð¸Ñģ": 56611,
  "YST": 75681,
  "asString": 76522,
  "Ġ|:": 104377,
  "Ġunbelievable": 52229,
  "te": 668,
  "ĠÑįÑĤÐ¾Ð³Ð¾": 103117,
  "Ġdew": 67532,
  "foundland": 77733,
  "ĠNem": 63268,
  ".SaveChangesAsync": 49007,
  "ĠDEFINE": 68014,
  "(List": 10490,
  "opol": 28765,
  "(L": 5063,
  "ĠRK": 68237,
  "Ġmatchmaking": 63087,
  "Ġváº¥n": 103357,
  "Ø§ÙĦÛĮ": 101613,
  "ĠÐ´Ð¾Ð»Ð¶Ð½Ð¾": 113145,
  "gd": 29684,
  "(dec": 36812,
  "sterol": 33282,
  "((\"": 31973,
  "Ġdeserved": 45547,
  "ï¼Ł": 11571,
  "Ġvirus": 17188,
  "Ġaliqua": 87027,
  "ochond": 47517,
  "-duty": 55618,
  "ĠTOTAL": 48062,
  "ERGE": 93597,
  "ëŁ°": 103045,
  "uddy": 35017,
  "Ġpalette": 27404,
  "Ġenvelope": 35498,
  "ĠNath": 61909,
  "?\")Ċ": 71928,
  "nin": 79560,
  "\\Command": 61724,
  "Ġrural": 19624,
  "Ġrá»«ng": 123376,
  "Copy": 12379,
  "ÑģÑıÐ³": 109939,
  "Ġaiding": 86387,
  "ĠzÃ¡b": 126679,
  "ĠHowe": 86631,
  "aussian": 48072,
  "_RUN": 25035,
  "Sample": 18031,
  "Î»ÏĮÎ³": 120820,
  "ĠResultSet": 34682,
  "ÙĤÙĬ": 102328,
  "skip": 21247,
  "ĠRiy": 79890,
  "iphy": 61330,
  "ĉDestroy": 82332,
  "ĠSloven": 60495,
  "Ġglamorous": 77014,
  "<|reserved_special_token_9|>": 128017,
  "KE": 3472,
  "FO": 3873,
  "ÙĪÙĦØ§": 116598,
  "Ġcaravan": 74760,
  "Ġcultura": 74735,
  "_LEAVE": 90841,
  "};čĊčĊčĊ": 74634,
  "_bonus": 60641,
  "isations": 56276,
  ".cycle": 98532,
  "Visitor": 17215,
  "ĠIPP": 64773,
  "Ġìĺ¬ëĿ¼": 121250,
  "Ġhassle": 47947,
  "Ġdir": 5534,
  "ĠVoll": 97482,
  "Ġonlara": 119993,
  "Ġlawmaker": 71476,
  ".AL": 42163,
  "agents": 55975,
  "Ġcomplexity": 23965,
  "Ġitemprop": 70273,
  "Ġconsider": 2980,
  "Ġglaciers": 95790,
  "ĠNYT": 99812,
  "\\\">\\": 39958,
  "_relu": 77382,
  "ĠOverflow": 71547,
  "ĉjava": 57271,
  "çĶ³": 102782,
  "Ġchromat": 98284,
  "perienced": 45933,
  "Ġaktual": 85401,
  "Ġformul": 82040,
  "Ġperverse": 95904,
  "Ju": 63704,
  "Backup": 57345,
  ".setObjectName": 49192,
  "ĠCemetery": 59578,
  "ĠpageIndex": 60346,
  "ĉen": 82948,
  "ÑĢÑĥÐµÑĤ": 111916,
  "ĠAlice": 30505,
  "ensor": 3890,
  "ÏĢÎ®": 119170,
  "degrees": 70849,
  ".Valid": 48256,
  "Ġcáº¥u": 108843,
  "ĠØªØ¬ÙĩÛĮØ²Ø§Øª": 121838,
  "ĠErdogan": 57189,
  "/support": 61470,
  "ĠìĦ¤ìłķ": 66980,
  "ĠGecko": 43699,
  "ĠMeh": 68324,
  "ĠÑĩÐ°ÑģÑĤÑĮ": 107165,
  "MULT": 68595,
  "Ø¨ÙĪØ§Ø³Ø·Ø©": 107952,
  "ĉstage": 92675,
  "ĠEarly": 23591,
  "ÑĢÐµÐ¼ÐµÐ½Ð½Ð¾": 117379,
  ".comments": 46174,
  "ĠCyprus": 57784,
  "ĠæĻ": 103480,
  ".Distance": 53308,
  "Ġformatter": 25851,
  "ĠpornÃ´": 48457,
  "_ai": 70515,
  "=\",": 22080,
  "stellar": 78393,
  "patibility": 54153,
  "Ð°ÑĢÐ°Ð¼ÐµÑĤ": 59582,
  "ĠAnthem": 90232,
  "[idx": 11858,
  "ABOUT": 76630,
  "odi": 31559,
  "Ġskimage": 93376,
  ".this": 11127,
  "ĠÑģÐ»ÑĥÑħ": 127793,
  "icont": 52260,
  "Ġchain": 8957,
  "ÐĲÐ²": 123674,
  "getMock": 47328,
  "icator": 13557,
  "_builder": 29632,
  "Ġemotion": 20356,
  "Ġinout": 97377,
  "Ġsymmetric": 55443,
  "ĠĠĠĠĠĠĠĠĠĠĠĠĠĠĠĠĠĠĠĠĠĠĠĠĠĊ": 76328,
  "finder": 34439,
  "ĠUm": 24218,
  "Brit": 36328,
  "-application": 93579,
  "à¹Ģà¸ªà¸£": 109347,
  "Abr": 90528,
  "iver": 1553,
  "ĠÑĦÐ¸Ð»ÑĮ": 113370,
  "ItemClickListener": 38429,
  "ff": 544,
  "ĠrÃ©s": 31807,
  "ĠÐ¿ÑĢÐ°ÐºÑĤÐ¸": 104912,
  "lessons": 73412,
  "setDescription": 64642,
  "Ġreside": 48383,
  "å®¢æĪ·": 114105,
  "fat": 45283,
  "_repository": 48401,
  "ĠìŀĲìĹ°": 124110,
  "áº½": 100651,
  "ĠSeit": 97620,
  "Ġapost": 39571,
  "klÃ¤r": 78231,
  "ĠSaras": 95914,
  "Gain": 59711,
  "Lights": 75584,
  "meth": 69991,
  "Ġmeydana": 114518,
  "trag": 53115,
  "ificaciÃ³n": 53507,
  "TION": 60459,
  "ucciÃ³n": 68836,
  "ĠÐ´Ð¸": 102495,
  "à¹Ĥà¸Ī": 120675,
  "shiv": 65830,
  "ĠØ§ÙĦÙĥÙĩ": 126637,
  "ĠìĤ¬ëŀĮìĿĢ": 126393,
  "Ġinvariant": 58720,
  "019": 18089,
  "InRange": 77159,
  "Ġ\"\\\"": 16277,
  ")&&(": 51969,
  "eny": 33495,
  "Ġbuena": 65896,
  "obre": 38708,
  "Ã¨re": 12339,
  "ĠBG": 44111,
  "Once": 12805,
  "Ġcelular": 88226,
  "Ġfive": 4330,
  "ĠInterval": 41684,
  "ĠminLength": 84885,
  "âĹĨ": 109880,
  "Ġê²ĥìŀħëĭĪëĭ¤": 123263,
  "áº©y": 107351,
  ".BO": 68701,
  "Ġshredd": 53462,
  "(InitializedTypeInfo": 91817,
  "Ġwalmart": 71225,
  "çİ°ä»£": 120589,
  "Ã¡nu": 117711,
  "ĠJill": 48311,
  "åĥı": 66201,
  "CAM": 49413,
  "pickle": 87005,
  "ĠëŁ¬": 116849,
  "ĠĠĠĠĠĠĠĠĠĠĠĠĠĠĠĠĠĠĠĠĠĠĠĠĠĠĠĠĠĠĠĠĠĠĠĠĠĠĠĠĠ": 10724,
  "_parallel": 61725,
  "reet": 3829,
  "ÑıÑİÑĤ": 120079,
  "åħ¥ãĤĬ": 124629,
  "guess": 52851,
  "Ġbattlefield": 38486,
  "ĠÃ¼zerindeki": 121620,
  "Under": 16648,
  "à¥Īà¤¶": 121350,
  "Ð°ÐµÑĤ": 28007,
  "Ġimplying": 73967,
  "tÃ©": 123708,
  ".translate": 26998,
  "If": 2746,
  "ska": 105571,
  "ĠHeb": 85419,
  "ĠHow": 2650,
  "ĠErot": 29064,
  "stown": 44058,
  "-oper": 59655,
  "()};Ċ": 82241,
  "RC": 7532,
  "ia": 689,
  "_BIG": 63843,
  "Ġsistema": 29928,
  "ibase": 99846,
  "Ġquelque": 79071,
  "Ġdeclining": 43848,
  "ĠÑģÐ±": 118921,
  "ì¤Ħ": 115087,
  "scenes": 88065,
  "Ġmasturb": 30443,
  "verbosity": 66310,
  "Ġmasked": 43248,
  "keypress": 61506,
  "Ġ(!!": 79080,
  "ONDON": 87228,
  "ĠRe": 1050,
  "ĠÐ´Ð°Ð»ÑĮ": 111756,
  "Ġà¤¸à¤¤": 109943,
  "ulton": 76576,
  "Mur": 60978,
  "à¤¬à¤²": 127136,
  "ĠGreenwich": 86938,
  "IFF": 30135,
  "ĠIndexPath": 33996,
  "ĠUtf": 44532,
  "cerpt": 35128,
  "Ġemb": 8126,
  "ĠhashMap": 69059,
  "aturdays": 70804,
  "Ġcoast": 13962,
  "ĠÐ²ÑģÐµÐ³Ð´Ð°": 108863,
  "ĠJe": 14465,
  "atient": 16794,
  "Ġçĥ": 118083,
  "ĠLog": 2905,
  "æĪĲäºº": 118104,
  "uchos": 68350,
  "_parameter": 25943,
  ".application": 22603,
  "Picture": 25696,
  "nodeName": 94551,
  "-errors": 73704,
  "ĠKinect": 95603,
  "Ġpuls": 56037,
  "ĠTradable": 23940,
  "Ġhuyáº¿t": 124149,
  "Ġparl": 44314,
  "ĠTub": 40640,
  "Ġinstantiate": 42002,
  "Ġpeek": 33692,
  "ĠBarr": 32817,
  "PropertyName": 32143,
  "Ġundecided": 94555,
  "through": 20322,
  "ĠcellFor": 41704,
  "Ġdeque": 43050,
  "ĠÐ½ÑĸÐ¼ÐµÑĨÑĮ": 126454,
  "ĠãģĿãģ®ä»ĸ": 123485,
  "ĠScottish": 27188,
  "[ix": 64270,
  "phot": 52399,
  "ĠChargers": 60693,
  "roveÅĪ": 110422,
  "ĠÐ¶Ð¸Ð²Ð¾ÑĤ": 110202,
  "Ġguard": 7771,
  ".lv": 91810,
  "=-=-=-=-": 56903,
  "Ġtransform": 5276,
  "_MOUSE": 54407,
  "Ġguerra": 86027,
  "Ġcompressed": 31749,
  ")ĊĊ": 696,
  "Ġmurdering": 81027,
  "Ġundermined": 80617,
  "ĠRailway": 55556,
  "ĠDavid": 6941,
  "ĠWindowManager": 78855,
  "flight": 39490,
  "ĠÎĶÎ·Î¼Î¿": 113942,
  "-build": 33245,
  "Ġdress": 8679,
  "..:": 114100,
  "[]):": 47756,
  "ĠLeafs": 65250,
  "-members": 86940,
  "igits": 19184,
  "ĠRahul": 86236,
  "ĠTrucks": 86435,
  "-quarters": 83641,
  "Ġinternals": 92125,
  "isodes": 15081,
  "ĠEarl": 48510,
  "ç»ıçĲĨ": 124488,
  "uso": 47535,
  ".sys": 35151,
  "æľīäºº": 115814,
  "ÐµÐ½ÑĤÐ¸": 104388,
  ".\");Ċ": 7470,
  "à¹ĮĊĊ": 122886,
  "èĥ¸": 111140,
  "ĠClients": 48508,
  "_n": 1107,
  "Ġabstraction": 59851,
  "Ġpaste": 25982,
  "TT": 15249,
  "TimeZone": 78886,
  "ĠsuperClass": 60757,
  "(\"-\",": 69146,
  "Throughout": 60105,
  ",h": 20393,
  "ĉplay": 90067,
  "paint": 34717,
  "_GL": 37800,
  "ĠBones": 72399,
  "ĠGee": 96697,
  "ĠKi": 30558,
  "rientation": 18130,
  "ĠpÅĻib": 113542,
  "ĠVentura": 85754,
  "èĸ¦": 115893,
  "ĠRos": 16870,
  "Ġstock": 5708,
  "ĠÃ¶": 17372,
  "Jo": 23307,
  "RetVal": 96300,
  "Ð¸ÑĤÐµÐ»ÑĮÐ½ÑĭÐ¹": 118050,
  "Ġjudge": 11913,
  "detect": 62343,
  "hq": 82999,
  "imas": 50463,
  "Ġcontroversies": 86893,
  "RU": 37103,
  "ĠRi": 52830,
  "nem": 106700,
  "Ġjapan": 55229,
  "ĠÐ¿Ð¾ÑģÑĤÐ¾ÑıÐ½Ð½Ð¾": 123045,
  "ĠÐºÑĢÐ°ÑĹÐ½Ð¸": 119474,
  "(svg": 85108,
  "ĠUIKit": 18647,
  "ĉcategory": 76470,
  "ÏĦÎ¯Î¿Ïħ": 124077,
  "Ġust": 88689,
  "WebSocket": 62338,
  "Compact": 99435,
  "\\\",": 16613,
  "âī¥": 120156,
  ".dist": 39077,
  "ĠCoast": 16377,
  ")<<": 36492,
  "Ġnuma": 93194,
  ".Insert": 24017,
  ".')": 55128,
  ".userAgent": 61778,
  "ĠìĪĺìĥģ": 121218,
  "Ġpolicymakers": 70978,
  "_deg": 47157,
  "Ġkond": 80264,
  "ĠPlanner": 75865,
  "Ġreversed": 28537,
  "ĠActionBar": 80193,
  "ëĤĺëĬĶ": 110955,
  ".icon": 21677,
  "/dashboard": 42261,
  "_MI": 60863,
  "Ø³Ø§Ùħ": 117767,
  "ensored": 56878,
  "oted": 9437,
  "ĠPrecision": 52459,
  "ĠCHRIST": 84665,
  "_Request": 45124,
  "Ġ../../": 64679,
  "apixel": 95295,
  "ĉelse": 2525,
  "à¤¾à¤ĩà¤¸": 126541,
  ".remaining": 93105,
  "âĢĿĊ": 89874,
  "å¿ĺ": 112727,
  "Ġanything": 4205,
  "Ã¦": 9371,
  "ĠPowerful": 75458,
  "ãģŁãĤģãģ®": 124122,
  "Ġhob": 69176,
  "Ġenormous": 23205,
  "Ġprogrammers": 55946,
  "\"_": 36189,
  "Ġë°¤": 115441,
  "Craig": 87376,
  "rosis": 63412,
  "ĠVenom": 90686,
  "AlertDialog": 72196,
  "Cd": 91300,
  "ĠGiÃ¡m": 117726,
  "ĠINA": 97399,
  "ĠMor": 8613,
  ".Course": 73397,
  "ptest": 71434,
  "_Clear": 58844,
  "ĠPyErr": 76767,
  "ĠÐ¼ÐµÐ½ÑĮÑĪÐµ": 116142,
  "ç¯ĩ": 111879,
  "cool": 43296,
  "hydration": 81824,
  "formats": 64582,
  "Ġsafest": 62844,
  "_eff": 53045,
  "Ġgrabs": 49155,
  "BOARD": 30877,
  "ĠIDEA": 73145,
  "ĠWhilst": 71828,
  "ÑĪÐ¸Ð¹": 103330,
  "ĠÐ¡": 28599,
  "ë¦¬ìĹĲ": 111833,
  "Ġplanting": 48114,
  "Ġassociate": 22712,
  "ĠAlvarez": 77815,
  ".loadtxt": 76529,
  "ĠÐ¼ÑĥÑģ": 121869,
  "ÙĬÙĨÙĩ": 118669,
  "Ġoccup": 10366,
  "ichtet": 90830,
  "658": 23654,
  "=\"__": 79627,
  "ìĥ¤": 124951,
  "ĠhoÃłn": 103313,
  "ãģĮ": 29295,
  "ĉbackground": 31838,
  "Ġshr": 14362,
  "ĠDerby": 46873,
  "Ġdepuis": 41199,
  "ĠLatin": 20023,
  "963": 26087,
  "Ġproviding": 8405,
  "OW": 3387,
  "ĠTLabel": 82097,
  "Ġaction": 1957,
  "ĠrÃ©sultats": 100246,
  "Ġstrictly": 26549,
  "PointSize": 99211,
  "\"g": 60819,
  "ĠManus": 96433,
  "Ġpakistan": 87098,
  "Ġå¹³æĸ¹": 124903,
  "\"));čĊčĊ": 71038,
  "\\Eloquent": 22647,
  "à¸º": 114918,
  "EMAIL": 37004,
  "Ð¸ÑĤÐ¾ÑĢ": 104903,
  ",.ĊĊ": 70278,
  "uns": 11099,
  "vrolet": 38420,
  "ĠSupplies": 51352,
  "Ġbecer": 125866,
  "ĠGTK": 38479,
  "oner": 27674,
  "Ð½ÐµÐ³Ð¾": 107010,
  "_tf": 48819,
  "Ð¼ÑĸÐ½ÑĸÑģÑĤÑĢÐ°": 110059,
  "Ġisolate": 43223,
  "(crate": 56007,
  "ĠìķĦìĿ´ëĶĶ": 125998,
  "rored": 48743,
  "maids": 98250,
  ".vert": 58865,
  "Ġ''){Ċ": 55095,
  ".sa": 54762,
  "notin": 84880,
  "Ġims": 72303,
  ":<": 32352,
  "(@\"%@\",": 71179,
  "DG": 54825,
  "ektir": 103627,
  "ĠìķĦëĭĪ": 104231,
  ".resp": 91349,
  "Swift": 56436,
  "æŃ³": 97049,
  "ĠAutos": 92652,
  "rench": 6793,
  "ĉmd": 85474,
  "_Bl": 58047,
  "ĠOps": 56258,
  "Excellent": 50755,
  "Ù¹": 110737,
  "aments": 24469,
  "ä¸ĭè½½æ¬¡æķ°": 113643,
  "ĠMUT": 88520,
  "Ġgenetically": 52033,
  "Ġå¤§éĺª": 126730,
  "_mini": 85921,
  "arsimp": 53309,
  "vara": 97050,
  "ĠCollision": 52648,
  "ĠSaints": 33319,
  "ĠgÃ³c": 117709,
  "Ġenthus": 16676,
  "Ġsmelling": 97103,
  "ë§ĮëĤ¨": 116433,
  "Ġtr": 490,
  "ĠÅ¡Å¥": 125850,
  "Ġrealization": 49803,
  "Ġativ": 69432,
  "SAM": 87434,
  "ĠÄįinnost": 122958,
  "_list": 2062,
  "(Document": 61980,
  ".src": 15023,
  "Ds": 68050,
  "meden": 110403,
  "ĠAly": 69410,
  "ĠdÃ©jÃł": 46939,
  "Wind": 59918,
  "Ġincent": 20647,
  ".moveTo": 30749,
  "ĠPatty": 89345,
  "PLUS": 62678,
  "iyet": 101149,
  "()čĊčĊ": 18490,
  "åį»": 127035,
  "pen": 2821,
  "Ġinjections": 65246,
  "Ġcoco": 83450,
  "<Data": 45495,
  ":path": 72896,
  "ĉengine": 81218,
  "onces": 43898,
  "Ġyc": 82958,
  ";\"><?": 65181,
  "Ġbonne": 51651,
  "Ġwicked": 45077,
  "Ġembodies": 95122,
  "_poll": 41102,
  "published": 33966,
  "Ġwhite": 4251,
  "Ġroaming": 69353,
  ".PARAM": 76671,
  "isa": 10994,
  "<|reserved_special_token_106|>": 128114,
  "ï»¿#": 43372,
  "LING": 75215,
  "(xy": 94319,
  ".getLast": 62149,
  ".Bounds": 73233,
  "ĠCB": 22024,
  "ĠSemiconductor": 79534,
  "ĠGuns": 60565,
  "Ġopc": 38127,
  ".serial": 30918,
  "ÛĮØ´Ùĩ": 108016,
  "Contacts": 37884,
  "ÑĤÐ¸Ð½": 105558,
  "åĽŀåĪ°": 126850,
  "ĠGr": 2895,
  "avÄĽ": 113625,
  "èĦ±": 110645,
  "Ġskeleton": 30535,
  "Ġcres": 46858,
  "class": 1058,
  "Â¤Â¤": 123037,
  "Ġmamma": 90411,
  "lectual": 59517,
  "ĠÎ²Î¹Î²": 126112,
  "buy": 20369,
  "ĠgroÃŁen": 68803,
  ".Flag": 82011,
  "Ġbeide": 98244,
  "eggies": 56660,
  "witter": 3886,
  "Ġsmb": 78892,
  "covered": 21468,
  "Ġreinforces": 95593,
  "layout": 8565,
  "../": 1266,
  ">'.$": 30641,
  "ÙĳÙĩ": 111450,
  "ĠlÄ©nh": 109617,
  "&,": 32763,
  "ĠIllustrated": 71161,
  "Ġtea": 15600,
  "Ġsomewhere": 15038,
  "Ġpj": 73713,
  "OB": 21257,
  "$result": 14578,
  "ĠpenÄĽ": 118070,
  "Overall": 28589,
  "_Real": 94406,
  "Ġcname": 79614,
  "AppBundle": 73988,
  "oundary": 73566,
  "dag": 51741,
  "Ġdodge": 48973,
  "Ġescalated": 81700,
  "ĠSponsor": 48661,
  "Ġfortunes": 68603,
  "Hardware": 67962,
  "////////////////////////////////////////////////////////////////": 10023,
  "Ġnumer": 8015,
  "arsing": 29698,
  "_LOADING": 65060,
  "mb": 3172,
  ")<=": 66712,
  "ÑĢÐ¾Ð»": 120969,
  "ayÄ±m": 118933,
  "analysis": 35584,
  "ÛĮØªÛĮ": 111631,
  "ĠÙħØ®ØªÙĦÙģ": 105517,
  "ĠbyÅĤ": 82735,
  "ĠAustr": 116112,
  "Meanwhile": 26054,
  "usu": 64968,
  "Ġunjust": 52583,
  ">,Ċ": 12803,
  "ĠgetCode": 83973,
  "iÃªng": 105419,
  ".just": 63310,
  "Ġëĭ¤ìĸĳ": 115299,
  "Ġarity": 81032,
  "breaking": 37757,
  "ĠkÃ¸": 35500,
  "ĠPasadena": 83550,
  "ĠsetInput": 93691,
  "Ġwget": 65608,
  "ëłĪìĬ¤": 116273,
  "(@\"": 11181,
  "Ġqueries": 20126,
  "ĠÃ§ocuk": 104927,
  "Ð²Ð¾Ð±": 120493,
  "IRS": 91064,
  "à¸¡à¸²à¸ģà¸ģà¸§": 122136,
  "Reward": 60722,
  "TransparentColor": 93785,
  "Intialized": 82836,
  "ĠPerm": 91821,
  "May": 11356,
  "Ġinstructional": 72345,
  "ÙĬÙĦØ©": 107325,
  "Ġservi": 55505,
  "Ġveriler": 123390,
  "ØĮ": 69885,
  "sensor": 30611,
  "à¥Īà¥¤ĊĊ": 109398,
  "ĠÙħØ§Ø³Ùĩ": 111541,
  "FromDate": 75822,
  "_PERSON": 74528,
  "ÑĭÐ²Ð°ÐµÑĤ": 106572,
  "witch": 5656,
  "Datas": 48763,
  ".ask": 68805,
  "âĢŀTo": 122073,
  "Attend": 99368,
  "Ġmisplaced": 90660,
  "ĠnháºŃp": 63672,
  "ĠÐ¼ÐµÐ½Ñĸ": 108186,
  "à¤ĩà¤¸à¤ķ": 126701,
  "ĠBarrier": 72087,
  "\\grid": 93885,
  "ĠÐ½Ð°ÑģÑĤ": 103772,
  "erring": 14782,
  "Ġfootprint": 43972,
  "Links": 25056,
  "eko": 98764,
  "struments": 38818,
  "marvin": 51376,
  "Î¹Î¿ÏĤ": 113590,
  "Ġaray": 127119,
  ";c": 79732,
  "kyt": 105973,
  "ÃŃc": 30515,
  "leich": 55471,
  "Ġbearer": 70871,
  "Ġbee": 38328,
  "ĠÑĥÑģÑĸ": 118356,
  "@brief": 90075,
  ")'),Ċ": 97379,
  "ĠFrm": 93095,
  "ĠHOLDERS": 21269,
  "ĠRomantic": 76830,
  "Ġapprec": 9989,
  "mixed": 57785,
  "React": 15143,
  "LBL": 21927,
  "Ġseizures": 55998,
  "chner": 86677,
  "spNet": 14686,
  "à¥Įà¤ķà¤°": 122755,
  "ĠãĢĢãĢĢãĢĢãĢĢãĢĢãĢĢãĢĢãĢĢ": 102453,
  ".Dock": 17683,
  "Kitchen": 85683,
  "tors": 98266,
  "_IE": 61548,
  "userId": 13816,
  "scheduled": 94685,
  "åĥħ": 126654,
  "/templates": 40041,
  "-addons": 95859,
  ";\\": 18364,
  "Ġ//<": 60281,
  "JSONArray": 48912,
  "zf": 70494,
  "lius": 87519,
  "_me": 17023,
  "\"].(": 85688,
  "Ġbadly": 25587,
  "702": 20253,
  "Ġspiders": 63236,
  "Ġuncomfort": 27824,
  "projection": 61571,
  "æĪĳä»¬çļĦ": 125383,
  "Ġdrawback": 88620,
  "_W": 2832,
  "-pages": 73447,
  ".registration": 74936,
  "Ġhern": 72909,
  "Ġvideoer": 70157,
  "ĠÚ©ÛĮÙģ": 109663,
  "fullscreen": 53549,
  "Ġhayat": 105183,
  "ĠSmoke": 54304,
  "_ASSOC": 32693,
  "argv": 6645,
  "âĢĶif": 90863,
  "ĠsetFrame": 86389,
  "aciones": 12712,
  "eket": 104320,
  "profits": 77601,
  "Ġstruk": 123483,
  "Ġbilgileri": 115815,
  "Ġegg": 19151,
  "Ġyounger": 14992,
  "ige": 7404,
  "markdown": 61173,
  "())ĊĊĊ": 52854,
  "Ġprocurement": 53678,
  "Ġeconomical": 60618,
  "marginTop": 67641,
  "Ġnude": 20637,
  "ĠdÃ³": 77514,
  "ial": 532,
  "ĠShea": 86068,
  "[g": 33612,
  "ÎºÏĮ": 103596,
  "Ġsmaller": 9333,
  ".getClassName": 83064,
  "ĠÐ½ÑĸÐ±Ð¸": 125923,
  "Ġcalculations": 29217,
  "ependency": 41629,
  "itemap": 26398,
  "ĠEmit": 62637,
  "Ġdynam": 18003,
  "Launcher": 92276,
  "Ġexplains": 15100,
  "ottom": 2896,
  "Ġubiquitous": 64564,
  "Ġexplaining": 26073,
  "/actions": 40221,
  "ĠWR": 25321,
  "Ð¸Ð»Ð¾ÑģÑĮ": 117181,
  "Ġhonors": 49593,
  "Ġmotivations": 65931,
  "Ø´": 33890,
  "Ġmys": 9916,
  "attached": 68597,
  "à¹ĩà¸ļ": 104007,
  "akespeare": 37971,
  "Ġlabyrinth": 99810,
  "ĠskvÄĽl": 126911,
  "Ġpulp": 64188,
  "Ġdumpsters": 99576,
  "(AT": 83373,
  "MARK": 24995,
  "Ġparticular": 4040,
  "_CAMERA": 59479,
  "ESC": 54814,
  "Ġà¸Ħà¸Ļ": 107891,
  "Ġ[čĊ": 24558,
  "_payments": 92357,
  "bufio": 98651,
  ".interface": 45984,
  "ĠRy": 26775,
  "ĠespaÃ±": 50475,
  "TextArea": 51231,
  "ĠCommon": 7874,
  ".Yellow": 91102,
  "/Common": 79186,
  "ĠsektÃ¶r": 108921,
  "ç¾ħ": 108327,
  ".function": 20687,
  "ĠNeedless": 83383,
  "conom": 45317,
  "ĠSlot": 32416,
  "Ġtáº£i": 106697,
  "Ġsmack": 91594,
  ".GetOrdinal": 92448,
  "Ġorbits": 86228,
  "shops": 27868,
  "Ġtrance": 98531,
  "Ġcropped": 61243,
  "ï¿½t": 99921,
  "Ġjuni": 83844,
  "EXAMPLE": 96975,
  "/original": 99237,
  "reste": 100034,
  "Ġreacting": 74150,
  "Ġprepar": 10073,
  "Ġscientifically": 74647,
  "InView": 93030,
  "ÑĸÑĹÐ²": 125646,
  "Ġwhisper": 35955,
  "à¸´à¸¡à¸ŀ": 107548,
  "ĠThiÃªn": 114956,
  ")čĊ": 1240,
  "ĠØ¨Ø§Ø±": 104151,
  "LARI": 119571,
  "Eliminar": 53758,
  "ĠMorris": 30283,
  "Ġ+=": 1447,
  "Ġctxt": 60262,
  "ä¸ĸ": 101083,
  "Ġlicked": 94035,
  "iever": 82121,
  "('/": 3478,
  "ABL": 95035,
  "ĠFehler": 92365,
  "Ġorigins": 33472,
  "Ġcá»§": 100316,
  "Per": 3976,
  "Ġbatteries": 27360,
  "Ġçķ": 107929,
  "Ġstamps": 50312,
  "saldo": 93612,
  "ĠTape": 58586,
  "ERTICAL": 40604,
  "Ð¸Ð½Ñĥ": 101693,
  "Ġmarketed": 61149,
  "uÃ§": 104353,
  "opped": 18033,
  "Straight": 89954,
  ".ml": 58509,
  "ĉaudio": 84390,
  "ĠFetchType": 78282,
  "ĠNim": 47683,
  "ĠÐ¼ÑĸÐ¶Ð½Ð°ÑĢÐ¾Ð´": 114015,
  "ĠØ§ÙĦØ±ÙħØ²ÙĬØ©": 126417,
  "-phase": 82710,
  "Ġmpfr": 83314,
  "ĠPART": 6909,
  "ĠÙħØ±ØŃÙĦÙĩ": 118267,
  "ri": 462,
  "uan": 10602,
  "-edit": 22930,
  ".onNext": 89836,
  "Ġdelete": 3783,
  "Ġextinction": 52609,
  "ĠØ£ÙĪÙĦ": 109641,
  "_right": 10762,
  "-operative": 90093,
  "(unit": 25116,
  "Ġwhistleblower": 92068,
  "ìĦłìĿĦ": 126712,
  "ĠZimbabwe": 52320,
  "Ġapis": 98823,
  "ĠEbook": 89771,
  "ĠSupplementary": 99371,
  ":text": 36052,
  "DDR": 71871,
  "ãĤ³ãĥ¼ãĥī": 121159,
  "ÑģÑĤÐµ": 113175,
  "aset": 5136,
  "([{": 75083,
  "pleado": 33366,
  "Ð¸ÑĨÐ¸Ð½": 115806,
  "DataAdapter": 34614,
  "Ø¦Ø©": 106541,
  "ItemList": 83974,
  "_reading": 82959,
  "Ġharm": 11682,
  "ĠÎ´ÏįÎ¿": 113697,
  "_GRE": 73839,
  "ĠÐ½Ð¾Ð¶": 118538,
  "ÅĤaw": 98348,
  "DisplayName": 27554,
  "(y": 7166,
  "IDO": 72074,
  "ĠBrow": 29477,
  "Ð½Ð¸ÑĨÑĭ": 113066,
  "<|reserved_special_token_16|>": 128024,
  "-release": 45824,
  "ined": 1619,
  "ï¼ī": 7705,
  "_devices": 42434,
  "OUNDS": 64153,
  "OV": 40057,
  "Ġtmpl": 80939,
  "alog": 32051,
  "ĠSB": 26313,
  "ĠThemeData": 96650,
  "µ": 113,
  "Ġ@{@\"": 93725,
  "ĠÃ¶rg": 112118,
  "_encoding": 38713,
  "(inst": 36787,
  "ĠCBS": 24991,
  "?),": 70372,
  "ĠÐ½Ñĸ": 102752,
  "<|reserved_special_token_25|>": 128033,
  "Ġsid": 14414,
  "ãģĸ": 75694,
  "ysqli": 35250,
  "ĠYOUR": 21592,
  "ce": 346,
  "(branch": 78962,
  "ĠFill": 22748,
  "ĠØ§ÙĦØªØ´": 118466,
  "SEM": 84839,
  "_preview": 43483,
  "-options": 40833,
  "ä¹ĥ": 113259,
  "(BuildContext": 21614,
  "Ġtomatoes": 41613,
  "}`}Ċ": 45199,
  "mbH": 32198,
  "ĠEllie": 89361,
  "ĠCologne": 79158,
  "Ġlodash": 90564,
  ".Documents": 56083,
  "ĠÚ¯Ø±Ø¯": 104027,
  "titleLabel": 89546,
  "March": 28623,
  "ĠMetallic": 87971,
  "Ġtemsil": 113118,
  ".currentThread": 49729,
  "Ġiris": 65042,
  "Ġinheritance": 42922,
  "Streams": 74676,
  "Ġfooter": 24048,
  "mÃ¡n": 126050,
  "ÐºÐ¾": 48199,
  "/cart": 57777,
  "ATTER": 50783,
  "SITE": 62206,
  "]]>": 120485,
  "ï¼ĮĊ": 42553,
  "ãģ¨ãģ¯": 107118,
  "ĠprÃ¡va": 118234,
  "Ġfirsthand": 83668,
  "Ġrecibir": 94280,
  "Ġstato": 49253,
  "ãĤ¸ãĤ§": 109531,
  "Ġtriumph": 38586,
  "CAPE": 61992,
  "-sample": 84979,
  "_reaction": 97731,
  "ĠÐ¾Ð±ÑĥÑĩ": 122512,
  "Ġê³µì§Ģ": 114226,
  "Ġbuna": 114315,
  "Ġë³Ģ": 47419,
  "Ġusher": 64260,
  "ìµľ": 104156,
  "ĠSingleton": 39785,
  "Ġnigeria": 92077,
  "é§ħ": 103449,
  "LayoutConstraint": 46040,
  "ĠÙ¾Ø²Ø´Ú©ÛĮ": 116269,
  "Ġcreo": 89324,
  "Ġjuego": 52995,
  "ĉfn": 41195,
  "ackle": 52622,
  ">|": 70944,
  "å·ŀ": 55139,
  "ĠCString": 58056,
  "ĠÑģÐ¾Ð»ÑĮ": 125782,
  "ÏĥÎ¹Î¼Î¿": 110173,
  "UsingEncoding": 93821,
  "USERNAME": 64616,
  ".r": 1783,
  "?#": 111838,
  "mÃ®": 118449,
  "rush": 78277,
  "ĠteÅ¼": 66920,
  "Ġuk": 15012,
  "å±ŀæĢ§": 80356,
  ".RESET": 98552,
  "keep": 13397,
  "zel": 28493,
  "NetBar": 41373,
  "ĠSeen": 74612,
  "Ġsá»£": 124478,
  "{čĊ": 1700,
  "ĠKarma": 75980,
  "Ġpuppet": 50548,
  "/usr": 55438,
  "Pie": 72384,
  "Ġ-->": 3929,
  "getWidth": 66831,
  "Runs": 75020,
  "ĠJJ": 71140,
  "-animate": 82450,
  "Ġ'#'": 58350,
  "Ġfid": 33204,
  "Ġflair": 69665,
  "Spark": 68583,
  "_added": 38753,
  "Ġà¤ĩà¤¤": 107241,
  "dirs": 58723,
  "Ġ!\");Ċ": 85445,
  "Ġlenses": 36057,
  "getSingleton": 80266,
  "ÑĢÐµÑģÑĤ": 112882,
  "Ġimportance": 12939,
  "ØĮĊ": 125340,
  "Ġsentido": 65484,
  "ä¸įæĺ¯": 103668,
  "Ġboy": 8334,
  "Ġnoises": 58448,
  "ÑĥÑĤÑĤÑı": 112129,
  "Ġmulter": 81345,
  "(Path": 34130,
  "ÄĽjÅ¡ÃŃ": 109291,
  "unma": 124113,
  "ĠSexo": 57914,
  "dess": 34107,
  "Tokenizer": 38534,
  "Ġpcap": 95654,
  "ÏįÏĦÎµ": 114547,
  "ãĥĥãĤ°": 115432,
  "adolu": 112288,
  "\"};čĊ": 99037,
  "ĉuser": 19600,
  "Truth": 25025,
  "ieron": 40608,
  "Ġlug": 54510,
  "roi": 51560,
  ".pnl": 50267,
  "Compiler": 39506,
  "ĠKons": 125801,
  "Ġpests": 76056,
  "ī": 231,
  "Ġsacr": 17475,
  "_aspect": 81170,
  "Ġdiversified": 85957,
  "WhiteSpace": 33783,
  "Ġmonde": 38900,
  "cÄ±": 100814,
  "ĠuseRouter": 95015,
  "oney": 2596,
  ".getBlock": 54541,
  "ëĮĢíĳľ": 124270,
  "ĠKansas": 20754,
  "atherine": 28107,
  "Ġconceptual": 44901,
  "Ġpdu": 98069,
  "ĠÐ¼Ð½Ð¾Ð¶Ðµ": 122929,
  "/el": 89758,
  "æĻºèĥ½": 118034,
  "_arch": 35430,
  "ĠFAR": 57415,
  "ĠIPCC": 95661,
  "ÎŁÎ¥Î£": 127395,
  "ĠOrlando": 28944,
  "Ġrapid": 11295,
  "_GRAY": 61616,
  "Ġselv": 61351,
  "isque": 96643,
  "ĉall": 52060,
  "Ġcorros": 46657,
  "oured": 21020,
  "ĠProduto": 68354,
  "Ãºc": 101439,
  ".fetch": 16512,
  "ĠENC": 73362,
  "Å¯l": 108978,
  "ĠDoes": 12838,
  "Ġxx": 21578,
  "âīł": 126582,
  ".FlatStyle": 28909,
  "FormattedMessage": 87842,
  "Met": 35773,
  "ario": 3370,
  "ology": 2508,
  "received": 42923,
  "Ġappearances": 27351,
  "Ġcache": 6636,
  "Ġtren": 74700,
  "ĠVá»ģ": 126573,
  "ĠMaui": 93550,
  "_rename": 80499,
  "KindOfClass": 48928,
  "_LOC": 16802,
  ".');čĊ": 79354,
  "Ġloneliness": 75040,
  "ÑģÐº": 66144,
  "à¸±à¸ķà¸Ļ": 117776,
  ".Sockets": 93400,
  "åĩĨ": 103329,
  "ĠFonts": 62721,
  "ĠBroad": 16273,
  "ĠMcGu": 84164,
  "Ġ```Ċ": 42333,
  "-cor": 46713,
  "_SEPARATOR": 33343,
  "éĸĭå§ĭ": 111671,
  "Ġsystemctl": 90521,
  "_THRESHOLD": 45505,
  "Ġdy": 14282,
  "Ġstate": 1614,
  "ĠÙ¾ÛĮØ§Ùħ": 118053,
  "ÑĩÐ°": 100420,
  "(Process": 79103,
  "Ġdijo": 66010,
  "à¤¿à¤Ľà¤²": 114621,
  "alarÄ±ndan": 125771,
  "ĠminOccurs": 80341,
  "Ġopportunities": 10708,
  "Ø²ÛĮÙĨÙĩ": 110185,
  "ÙĪØ±ÛĮ": 102270,
  "Agent": 17230,
  "_pll": 99912,
  "<|reserved_special_token_143|>": 128151,
  "ĠMODIFY": 70765,
  "ymes": 79809,
  "(sb": 37484,
  "chÃ¡zet": 110619,
  "ault": 957,
  "ĠCat": 17810,
  "usz": 70491,
  "Ġcette": 20662,
  "Ġarmor": 20634,
  "ngr": 59292,
  "ĠØ¯Ø§Ø¯": 103187,
  "łģ": 16050,
  "à¥ĩà¤µà¤²": 108956,
  "WithContext": 92201,
  "178": 11256,
  ".inv": 44320,
  "Ġsinh": 98932,
  "Ġclr": 63227,
  "Ġquit": 17257,
  "_cmos": 82697,
  "Ġbáº±ng": 101743,
  "ĠëĮĢíķĻ": 116316,
  "zdy": 124388,
  "ĠMySqlCommand": 59407,
  "Ø¶Ø¹": 104742,
  "ĠMakes": 37970,
  "ĠOrient": 62574,
  "George": 40052,
  "ãģ»ãģ©": 108680,
  ".Company": 54674,
  "ĠNSCoder": 70062,
  "ĠVirgin": 11463,
  "Ġjourney": 11879,
  "ĠaltÄ±": 118161,
  "Ġpessim": 73623,
  "Ġamet": 28311,
  "ĠÐ¿ÑĢÐ¾ÑĤÐ¸": 112401,
  "Ġcured": 64688,
  "(username": 17522,
  "Ġcarp": 39739,
  "ordable": 36270,
  "Ġê´Ģíķľ": 115825,
  "lenme": 115749,
  "Ġsunk": 68265,
  "á»Ľm": 116578,
  "_ped": 94204,
  "/cop": 67759,
  "ĠMitgli": 78194,
  "tracked": 59481,
  "Mah": 47308,
  "Ġcharcoal": 61203,
  "Th": 1016,
  "^K": 53067,
  "Ġstacks": 41050,
  ";'Ċ": 99419,
  "pricing": 75470,
  "ĠÐľÐ¸Ðº": 113128,
  "Browser": 18360,
  "pecific": 15934,
  "æŃ£åľ¨": 97655,
  "Î¹Î±Îº": 122005,
  "ÅŁ": 7370,
  "ĠVIP": 36169,
  "_host": 13144,
  "Ġplain": 14733,
  "{}_": 66897,
  "ĠíĿ¬": 116681,
  "-border": 28117,
  "ĠBlockly": 83018,
  "ĉdelay": 56274,
  "ordering": 52969,
  "ëħ¸": 101687,
  "ĠIndoor": 64368,
  "Ġengages": 69589,
  "ĠwÃ¤hrend": 68083,
  "ĠÙħØ¬ÙħÙĪØ¹": 105609,
  "ĠMostly": 64285,
  ".centerY": 69615,
  "Ġmastering": 88861,
  "æĤ£èĢħ": 121648,
  "ÑĥÑģÑĤ": 61613,
  "Ġtav": 93309,
  "Ð°Ñı": 36497,
  "Param": 2044,
  "PURE": 46461,
  "Ġdaily": 7446,
  "ĠOECD": 79517,
  "Ġãĥ¯": 119806,
  "shi": 60521,
  "_CONF": 30312,
  "Ð¾Ñı": 61390,
  "ĠHitler": 31654,
  "ĠDesert": 43286,
  "ĠTorrent": 64886,
  "Ġdownhill": 73481,
  "Ġvast": 13057,
  "ĠÄ°t": 124565,
  "Ġasian": 36725,
  "Ġinterceptor": 78045,
  "Ġszer": 58217,
  "baz": 43673,
  "188": 9367,
  "Alexander": 78850,
  "ĠBazÄ±": 121239,
  "iveness": 13071,
  "Ġdal": 25769,
  "Ġpetits": 86696,
  "ĠÐ½ÐµÑģ": 109211,
  "Ġfray": 98353,
  "à¸ģà¸²à¸£à¹ģà¸Ĥ": 119390,
  "Ġliters": 93966,
  "(prog": 81178,
  "Ġretorna": 72775,
  "=new": 8507,
  "å®¶çļĦ": 124876,
  ".FieldName": 63139,
  "ĉtxt": 69372,
  "ĠGlasgow": 43997,
  ".no": 18847,
  "think": 27963,
  "ĠJedi": 41495,
  "/library": 46546,
  "áº¥p": 100807,
  "_Float": 90167,
  "ÎĻÎļ": 102150,
  "Ġreadiness": 62792,
  "REDENTIAL": 82609,
  "ĠFans": 42896,
  "ĠØ¯ÙĬÙĨ": 120401,
  "Ġå±±": 105731,
  "å·¥æ¥Ń": 121676,
  "Ġrobbed": 63354,
  "è¨ĢãģĨ": 112844,
  ".registry": 56668,
  ",but": 100004,
  "905": 22393,
  "Ð¾Ð¶": 21956,
  "Ġcomputing": 25213,
  "ĠNetanyahu": 45742,
  "Ġoverturned": 69098,
  "Ġunder": 1234,
  "ĠÐ·Ð°Ð±ÐµÐ·Ð¿ÐµÑĩ": 106881,
  "_countries": 92774,
  "fad": 84159,
  "film": 31255,
  "à¹Įà¸Ĺ": 103688,
  "riority": 8948,
  "Ġchir": 71546,
  "ĠÐ¼Ð¸ÑĢ": 115388,
  ".required": 20664,
  "ÑĢÐ¸Ð¹": 107089,
  "æĽ¾": 106638,
  "madÄ±": 109648,
  "ĠbeforeEach": 18193,
  "ĠDestroy": 23047,
  "ĠØ´ÙĩØ±Ø¯": 124413,
  "Ġhomeless": 23855,
  "è§Ĥ": 103276,
  "ĠReyes": 77259,
  "Ġens": 4675,
  "ĠÐ³Ð¾Ð»": 108343,
  "Ġdisclosure": 28957,
  "ĉMain": 76078,
  "Ġartistic": 32692,
  "ÎµÎ¹Î±": 107238,
  "ĠØ¨ÙĦÙĨØ¯": 119802,
  "_reads": 67728,
  "ÑĪÐ¾Ð²": 106052,
  ".fullName": 83716,
  ".slf": 21173,
  "ĠSAVE": 51722,
  "\\Event": 48129,
  "Ġdbs": 85681,
  "Ġhomelessness": 63022,
  "ĠExcept": 38267,
  "_K": 10310,
  "Ġsubmitted": 14976,
  "ĉredirect": 39021,
  "TypeEnum": 89751,
  "Ġafirm": 86538,
  "ĠProxy": 33878,
  "ÑĸÐ´Ñĥ": 119867,
  "-layer": 48435,
  "fitness": 74621,
  ".Tool": 25443,
  "ĠPhil": 7302,
  "Ġbelie": 2888,
  "ĠTextBox": 30794,
  "Ġëĭ¤ë¥¸": 105642,
  "HELL": 69658,
  "æĤŁ": 125636,
  "ĠÅ¼e": 24230,
  "uplic": 10047,
  "-wsj": 29233,
  "stitial": 49270,
  "Ġiz": 22924,
  "$max": 91732,
  "dataset": 22090,
  "Interior": 86225,
  "Ġdrama": 20156,
  "/cupertino": 88055,
  "urar": 76959,
  "_peng": 66524,
  "Ð¾Ð¿Ð¾Ð»": 121900,
  "ĠÎķÏĢ": 105821,
  ">');": 98336,
  "Ġistedi": 108828,
  "dia": 32106,
  "Ġ{*": 30908,
  "726": 24430,
  "Bá»Ļ": 119781,
  "uir": 21581,
  "adress": 83336,
  "dae": 90284,
  "ĠHÃ¬nh": 121310,
  "ĠborderColor": 36926,
  "âĢĮØ¨Ø§Ø´Ø¯": 116289,
  "Ġphenomenal": 57492,
  "Ġseventy": 71049,
  "Launching": 73432,
  "ãĢįãĢĮ": 59712,
  "ĠØ¨ÙĪØ§Ø¨Ø©": 102184,
  "QRST": 71692,
  "ature": 1598,
  "Ð»Ð¸Ð²Ð¾ÑģÑĤÑĸ": 126806,
  "changes": 19926,
  "...\"": 21908,
  ".db": 7221,
  "ĠÙĤØ§ÙĦØ¨": 120992,
  "Operand": 31040,
  "-suite": 92674,
  "Ġculo": 65498,
  "Monitoring": 99162,
  "Ġ){čĊ": 42291,
  "ĠLIST": 28064,
  "Ġdubbed": 42160,
  "Ġsworn": 51748,
  "Ġunfinished": 64716,
  "ww": 1273,
  "Ġ*)Ċ": 17856,
  "ĠScenes": 84283,
  "ĠyÄ±lda": 125851,
  "ĠOdd": 56136,
  "Ġlook": 1427,
  ".SK": 92029,
  "lucent": 60154,
  "ÐµÐ½Ð½Ð°Ñı": 110407,
  "istant": 11451,
  "expire": 53261,
  "LETED": 57586,
  "ĠIntersection": 80114,
  "à¸·à¸Ń": 84681,
  "ĠSpo": 57049,
  "ĠCasting": 66848,
  "Ġtá»ĳc": 110256,
  "ĠÐ¾ÐºÑĢÐµÐ¼": 112579,
  "ĠEsto": 93125,
  "passes": 95423,
  "éĶ®": 62049,
  "$content": 44663,
  "(cid": 58450,
  "ĉdistance": 99152,
  "Ġcolomb": 75324,
  "Ġ#{@": 55728,
  "specific": 52340,
  "ĠCups": 79206,
  "Ġmistakes": 21294,
  "Ġaerial": 41884,
  "Ġreopening": 94500,
  "Ġcommanders": 61427,
  "ĠAlban": 57991,
  "\\Support": 17391,
  "Ġdiaper": 76853,
  "requires": 42475,
  "br": 1347,
  "ĠHawth": 86883,
  "Ġspecifies": 30202,
  "Ġ'&'": 86199,
  "ĠRox": 72523,
  "Ð¨ÐĲ": 106264,
  "Ġlá»Ŀi": 106866,
  "odate": 88111,
  "Ġcurated": 58732,
  ".push": 2615,
  "_LOW": 26916,
  "ANTI": 88722,
  "ĠÄĲá»©c": 106756,
  ".Complete": 94673,
  "_once": 7785,
  "ĠluáºŃt": 103704,
  "Attr": 13675,
  "Minus": 75558,
  "MZ": 98088,
  "(strtolower": 74845,
  "Î¼Î¹Î»Î¿ÏĤ": 117431,
  "376": 18322,
  "Ġdiabetes": 20335,
  "Ġditch": 50104,
  "Ġlá»Ľn": 102610,
  "ÑĪÐ¸Ð²": 127381,
  ".Formatting": 42011,
  "Ġfancy": 27555,
  ".Audio": 52611,
  "ROC": 74745,
  "à¸´à¸¥à¸Ľ": 113548,
  "åĪĬ": 107680,
  "ĠPrincip": 45629,
  "ografia": 50901,
  "ĠÑĦÐ°Ðº": 103788,
  "Ð½Ñĭ": 12648,
  "Ġqueens": 70097,
  "ĠWCS": 99451,
  ".Itoa": 65209,
  "ibel": 69695,
  "ĠÑģÑĤÑĢÐ°ÑĪ": 119819,
  "ATED": 9182,
  "jÃŃ": 100340,
  "Ġpeach": 73188,
  "Ġunanimously": 65178,
  "iseconds": 17097,
  "Ð´Ð¸Ð²Ð¸Ð´Ñĥ": 118805,
  "ĠBears": 37068,
  "Ä±ndaki": 102918,
  "plusplus": 25432,
  "Ġmoderation": 64382,
  "-Version": 85002,
  "_GATE": 82216,
  "ĠNielsen": 64551,
  "ÙĥØ§ÙĨ": 102087,
  "Ġdaughters": 30968,
  "Ġobservation": 22695,
  "_Reference": 99890,
  "Ġapparently": 14132,
  "Ġeditar": 80317,
  "ĠPositive": 45003,
  "Ġineligible": 96916,
  "Ġjclass": 77396,
  "Ġvegetarian": 46482,
  "_DELETE": 30023,
  "ĠPIX": 62701,
  "ael": 6015,
  "izoph": 46278,
  "bill": 30742,
  "Ø¨ÙĬÙĨ": 127316,
  "å¤ĩ": 57378,
  "ĠÆ°á»Ľc": 118259,
  "PLACE": 36975,
  "ĠdruhÃ½": 125277,
  "Ġdismantle": 95158,
  "Ġbiography": 48345,
  "Ġsongs": 11936,
  "Ġì£¼": 56773,
  "weight": 4870,
  "Ġyapacak": 124267,
  "ĠÎ£Î¤": 113513,
  "ĠØ±": 54810,
  "ĠÙħÙĪØ§Ø·ÙĨØ©": 125448,
  "ÙħØŃÙħØ¯": 124841,
  "ĠQHBoxLayout": 82391,
  "mont": 21047,
  "ophy": 118930,
  "ĠÅŀah": 126802,
  "ologist": 16549,
  "Ġnya": 76289,
  "ĠÙĩÙĨØ§": 117402,
  "dfunding": 64991,
  "æŃ¢": 82533,
  "ä¸Ńå¤®": 109432,
  "opt": 2985,
  "Logger": 7547,
  "-shop": 76014,
  ".Op": 68899,
  "å¹ħ": 111044,
  "\\helpers": 44208,
  "-hooks": 79487,
  "Ġduy": 102082,
  "Ġnhá»¯ng": 100557,
  "Chapter": 26072,
  "domains": 60721,
  "Î¼ÎµÎ½Î·": 122497,
  "ĠAdvances": 91958,
  "_RATE": 30208,
  "ĠVere": 69932,
  "gy": 4680,
  "Ġcontraction": 71895,
  "âĢĮØ®": 113236,
  "Ġbutton": 3215,
  "ĠÑĸÐ·": 102112,
  "Ġtransporting": 67757,
  "Ġcoffee": 11033,
  "ĠSerialized": 92572,
  "feat": 45744,
  "(embed": 50825,
  "Ġalloy": 46964,
  "Ġcoeffs": 80272,
  "Ġrecovered": 26403,
  "Ġcriter": 81439,
  "ĠHOWEVER": 30416,
  ".parser": 26699,
  "Ġcompartments": 87352,
  "incinn": 33097,
  "à¸±à¸ļà¸Ľà¸£": 122982,
  "à¸µà¸¬à¸²": 118261,
  "getChild": 69450,
  "();čĊčĊ": 7466,
  "stim": 54754,
  "--------ĊĊ": 71918,
  "ÏĦÏĮÏĤ": 112613,
  "_SHIFT": 23487,
  "ĠÄĳáº§u": 100906,
  "_relative": 30386,
  "Ġauthorized": 19144,
  "giene": 43312,
  "Ġadipiscing": 59024,
  "(lista": 53897,
  ".JLabel": 17630,
  "COND": 27652,
  "culture": 70905,
  "ĠÐĵÐ¾ÑģÐ¿": 119438,
  "-run": 23831,
  "Ġstereotypes": 54168,
  "[element": 81202,
  "\"\":": 29896,
  "Ġcrews": 43160,
  "áº¥u": 101551,
  ".token": 14754,
  "/problem": 81097,
  "ĠNgb": 67389,
  "ĠmÃºsica": 71445,
  "Ġms": 10030,
  "ĠAlso": 7429,
  "ĠMoody": 72401,
  "useRalative": 89472,
  ".BufferedReader": 48690,
  "_encrypt": 67693,
  "caÃ§Ã£o": 91623,
  "Conditions": 36535,
  "à¸µà¸Ĺ": 104751,
  "ĠÄĳÄ©a": 124594,
  "]);čĊ": 12275,
  "èĪĪ": 109834,
  "Ġjoy": 16267,
  "ĠKavanaugh": 38283,
  "à¹Ģà¸Ĺà¸¨": 102996,
  "ê°Ĳ": 103655,
  "ĠMetadata": 34689,
  "submenu": 62084,
  "ĠDinner": 49191,
  "ĠLiverpool": 25715,
  "_uart": 57889,
  "ĠinputValue": 81008,
  "ì¶ľìŀ¥": 104316,
  "Ġstrongly": 16917,
  "'Connor": 86265,
  "ĠFLT": 97161,
  ":null": 54198,
  "cribing": 44631,
  "ĉLogger": 56961,
  "Ġmounting": 34739,
  "420": 12819,
  "self": 726,
  "ĠPlate": 31403,
  "Ġpublished": 4756,
  "Som": 50982,
  "ĠÐ¾ÑĤÐ¼ÐµÑĩ": 123878,
  "waters": 99759,
  "ĠØ¯Ø´ÙħÙĨ": 123136,
  "Lon": 54324,
  "ĠDSL": 46658,
  "ÎµÎ»": 102496,
  "capture": 46170,
  "Ġrol": 18147,
  "ØºØ·": 114501,
  "-create": 40779,
  "Ġtearing": 56836,
  "UBLISH": 80476,
  "(iParam": 63979,
  "ãģ®ãģ¿": 116771,
  "Activity": 4142,
  "Ġtrustees": 79811,
  "Ð»ÑģÑı": 103285,
  "Ġknowledgeable": 42066,
  "Ġhinder": 57780,
  "Ġrdf": 67165,
  "ĠNDP": 54750,
  "Ġsort": 3460,
  "ĉexec": 68428,
  "hos": 42935,
  "_allocated": 83442,
  "Ġcandles": 52305,
  "ĠOtherwise": 18715,
  "¡": 94,
  "IH": 76123,
  "ĠGuide": 13002,
  "ritten": 12429,
  "ĠShort": 10928,
  "ĠGor": 47247,
  ".tools": 24029,
  "ĠKrÃ¡l": 115731,
  "Ġrua": 91010,
  "ĠBrent": 47431,
  "Ġcompletion": 9954,
  "ĠQVERIFY": 67134,
  "ĠRADIO": 83260,
  "UIImagePickerController": 99296,
  "Î£": 100410,
  "Early": 42298,
  "UARIO": 66685,
  ".SpringBootApplication": 63023,
  "ĠQUEUE": 98339,
  "Ġapolog": 21050,
  "Ġimmediately": 7214,
  "ĠØĮ": 100368,
  "Armor": 63982,
  "Ð¾Ñİ": 100655,
  ".simple": 25456,
  "Ġquanto": 51212,
  "webpack": 11634,
  "Ġsulfur": 72591,
  ".related": 48503,
  "Ġä¸İ": 116339,
  "ÑĥÐ±": 64569,
  "/utils": 22665,
  "Ġdid": 1550,
  "ĠÎºÎ¿Î½": 126022,
  "ãĥĭï¾Ĩ": 126786,
  "whatever": 69386,
  "')));Ċ": 44384,
  "ClassName": 14883,
  "ConnectionFactory": 90421,
  "Obviously": 49314,
  "ĠFle": 47790,
  "Ġnesta": 94058,
  "Ġspa": 31493,
  "ĠNeo": 41744,
  "ĠÐ±Ð»Ð°": 105749,
  "Ø§ÙĪØ±ÛĮ": 114361,
  "ĠÎ½": 99786,
  "ãĤıãĤĬ": 116547,
  "Ġscav": 83750,
  "cost": 16845,
  "drops": 91612,
  "Ġcaptivating": 86282,
  "Ġffm": 76992,
  "Ġlimitations": 9669,
  "Î¼ÎŃ": 100945,
  "ë¹ł": 110632,
  ")ìĹĲ": 121055,
  ".CENTER": 33667,
  "Ġ*.": 32630,
  ".insertBefore": 58467,
  "Ġrushed": 33341,
  "ControlItem": 31119,
  "à¸łà¸²à¸©": 109086,
  "ASC": 24635,
  "ĠRGB": 21653,
  "_ALPHA": 40597,
  "Push": 17056,
  "_DEFINE": 47907,
  "Ġamore": 72375,
  "ĠSTAR": 57845,
  "ĠcompanyName": 94015,
  "ĠBDS": 60927,
  "trfs": 81112,
  "ĠRitual": 88888,
  "add": 723,
  "isdiction": 26705,
  "ulace": 124477,
  "ĠFun": 16457,
  "ĠëĲĺìĹĪëĭ¤": 116027,
  "Ġreminis": 49679,
  "ĠGupta": 74798,
  "pageIndex": 92977,
  "Ø§ÙģÛĮ": 111379,
  "andles": 20729,
  "Ġ'=',": 26442,
  "Ġ@$": 37117,
  "FIXME": 82119,
  "ĠTao": 60608,
  "à¥ģ": 73753,
  "Ġtostring": 71990,
  "Boot": 18402,
  "lifetime": 98157,
  "]];Ċ": 13507,
  "ĠMySQL": 27436,
  "ĠÐ¿ÑĢÐ¾Ð±Ð»ÐµÐ¼": 103463,
  "strength": 75337,
  "'I": 42069,
  "ĠØªÙĥ": 116103,
  "ĠÐºÐ¾ÑĤÐ¾ÑĢ": 38153,
  "Ġzone": 10353,
  ".prop": 18924,
  "Ġconstrain": 80799,
  "ĠÐ¾ÑģÑĤÐ°Ð½Ð¾Ð²": 120021,
  "ĠÑĩÐµÐ¼": 102509,
  ">\\<^": 28630,
  "á»ĵm": 103939,
  "Ø§ÙĦØª": 104211,
  "/File": 65168,
  "ìĸ´ëĤĺ": 116501,
  "ĠçĶ¨": 111747,
  "ĠEINVAL": 77369,
  "mouseover": 47258,
  "ercise": 18865,
  "ulnerable": 94007,
  "ĠDairy": 79122,
  "itation": 7709,
  "ĠSprings": 30304,
  "]==\"": 69196,
  "IZER": 79241,
  "ï¼ĮåĲĮæĹ¶": 126526,
  "Ġrumours": 66025,
  "ç¶²": 105550,
  "_IMM": 68403,
  "Ġminimal": 17832,
  "tet": 73542,
  "road": 8714,
  "ÑĤÐ°Ð¶": 114462,
  "ĠVehicles": 56120,
  "Ġgoto": 8145,
  "Ġfla": 97228,
  "ÐµÑĢÑĸÐ³Ð°": 124804,
  "Ġgrammar": 32528,
  "Ġà¹Ģà¸ģà¸¡": 118441,
  "Ġguardian": 47132,
  "Ġmasturbation": 57762,
  "Ġbiochemical": 93532,
  "Ġsurely": 22225,
  "Ġendorse": 19507,
  "Ã¨te": 66522,
  "Ġrustic": 58372,
  "fec": 77626,
  "ĠBuddy": 60626,
  "ennes": 15564,
  "Ġdeepen": 92792,
  ".bottom": 17993,
  "fax": 40153,
  "wine": 72537,
  "Ġkillers": 61135,
  "ĠAmÃ©rica": 98192,
  "methodVisitor": 26009,
  "CLAIM": 23384,
  "ĠKÄ±s": 122537,
  "war": 11710,
  "UP": 3202,
  "á½´": 121421,
  "ãĢĢr": 116563,
  "_medium": 55967,
  "doubleValue": 83178,
  "Ð¾Ð»ÑĮ": 17461,
  "ãĥ¼ãĥŀ": 108941,
  "Ġextracting": 60508,
  "ĠÄĲá»ĭnh": 122865,
  "Address": 4383,
  "íķĺìĭľ": 111132,
  "ĠVÃŃ": 111772,
  "cmp": 7441,
  "<Test": 72373,
  "Ġhook": 9903,
  "ëĤĺë¬´": 123425,
  "pdo": 30814,
  "ĠÑĦÑĸÐ»ÑĮ": 121757,
  "Ġç¬": 49940,
  "çİ¯å¢ĥ": 110593,
  "íı": 100796,
  "Ġseismic": 72579,
  "Tony": 58834,
  ")),Ċ": 7110,
  "Ā": 188,
  "_tD": 89841,
  "Ð²Ð°ÑİÑĤÑģÑı": 125120,
  "CHAT": 61817,
  "ahoo": 17397,
  "bject": 807,
  "imizeBox": 65634,
  "ĠLOS": 53787,
  "ĠÑĢÐ¸Ñģ": 106979,
  "ĠÄĳá»Ļng": 100801,
  ".quiz": 88361,
  "ovat": 100794,
  "ç»¼åĲĪ": 106775,
  "ĠPsalm": 82976,
  "Cell": 3683,
  "Ġfragmented": 87195,
  "Ġabolished": 81081,
  "itories": 13733,
  "Ġsustainability": 41329,
  "xFFFF": 14721,
  "egade": 96337,
  "}/#{": 96116,
  "isor": 16220,
  "Ġåįķ": 114660,
  "rede": 92761,
  "ÑĢÐ¾Ð³": 114139,
  "Ġhunt": 19614,
  "RETURN": 52633,
  "ĠArmstrong": 45966,
  ".Db": 46432,
  "<|reserved_special_token_51|>": 128059,
  "Ġinland": 77289,
  "ĠìĦł": 101585,
  "ĠÐ·Ð°ÐºÐ¾Ð½": 103503,
  "èº«ä½ĵ": 111006,
  "Ġgj": 36101,
  "indered": 83303,
  "ombies": 36794,
  "cone": 59182,
  "èĳ£äºĭ": 121177,
  "ĠÐ´": 7952,
  "Ġloader": 16432,
  "ainer": 1780,
  "ĠÎµÏĢÎ¹": 103654,
  "èģĶåĲĪ": 122933,
  "(am": 76133,
  "(rel": 50335,
  ">(\"": 13514,
  "<|reserved_special_token_127|>": 128135,
  "ĠGrape": 80629,
  "Ġdrip": 73599,
  "confidence": 83029,
  "_resolution": 40949,
  "aincontri": 75572,
  "ëģĶ": 125974,
  "è²¡": 112686,
  "OLEAN": 24503,
  "831": 25009,
  "ĠLabour": 18993,
  "Ġcooperate": 47903,
  "Ġê°Ĳ": 103185,
  "Ġprimaries": 66512,
  "ĠÄĳáº¹p": 105450,
  "ĠÃľber": 50471,
  "Ġstabbing": 72022,
  "ĠØ¯ÙĩÙĩ": 126324,
  "ãģĭãĤīãģ¯": 126328,
  "ĠW": 468,
  "Ġsystem": 1887,
  "ĠØ§ÙĦØŃÙĬ": 108979,
  "éĤ£æł·": 126018,
  "-fired": 72678,
  "ĠDeployment": 67392,
  "Ġili": 60409,
  "Ġvole": 121839,
  "Ġcommercially": 54453,
  "Ġemployees": 8420,
  "`()": 68780,
  "_Bar": 92169,
  "ĠpÅĻiprav": 108944,
  ".MaximizeBox": 90407,
  "ĠFahrenheit": 69823,
  "ĠZaman": 117760,
  "eriod": 113682,
  "gear": 55827,
  "àª": 41814,
  "mile": 67697,
  "ĠITEMS": 78565,
  "Ġswell": 78353,
  "_PY": 79637,
  "ĠÏĢÏģÎ¿ÏĬ": 123142,
  "Ġcerca": 28549,
  "ĠDEL": 24711,
  ":description": 94423,
  "IP": 3378,
  "Nodes": 12568,
  "(selected": 26254,
  "/settingsdialog": 69679,
  "Ð·Ñı": 109027,
  "Ġ'(": 22796,
  "Ġshade": 28601,
  "ĠgiÃł": 72552,
  "Ġolmadan": 124740,
  ".IsEnabled": 54173,
  "Ġchildish": 94271,
  "MET": 45975,
  "ĠÅ¼yc": 74592,
  "ombine": 27289,
  "ãĤĦãģ£ãģ¦": 125338,
  "Ġassigning": 61853,
  "Ġoppressive": 78612,
  "çī¹åĪ¥": 115612,
  "Ġcantidad": 38376,
  "Ġremark": 14162,
  ".clean": 26303,
  "ĠPil": 37451,
  "ĠJeremiah": 83725,
  "ç«Ļåľ¨": 125694,
  ".baseUrl": 53366,
  "BarItem": 63588,
  "Ġanalog": 24291,
  "azz": 10002,
  "Ġbelongings": 64028,
  "Ġcripp": 71108,
  "Ġà¤¡": 101006,
  "ĉĉčĊčĊ": 93202,
  "åĨĨ": 35757,
  "ĠBus": 19111,
  "Ġarcade": 48312,
  "åīĩ": 108630,
  "ĠÐ·Ð°Ð²Ð¾Ð´": 115277,
  "ÃŃnh": 100474,
  "_ce": 51827,
  "ĠSask": 49746,
  "letic": 22740,
  "ÑĢÐ°Ð·": 89554,
  "ĠSweet": 27687,
  "ĠÙĨÙĤØ¯": 119720,
  "Ġsailed": 76844,
  "Ġsubway": 44346,
  "ĠÑĢÐµÐ·ÑĥÐ»ÑĮÑĤÐ°ÑĤ": 99300,
  "Ġthreatens": 48926,
  "stk": 76409,
  "Ġassembling": 81759,
  "Ġwrest": 23924,
  ".invalid": 56821,
  "ToStr": 68657,
  "ĠRosen": 35120,
  "celona": 23167,
  ".getLogin": 98396,
  ".hostname": 55673,
  "ãĥĲãĤ¹": 118809,
  "esso": 10024,
  "pearance": 13322,
  "Ġaccompanies": 49156,
  "Ġìłľ": 63171,
  ".setFocus": 80892,
  "Ġdisguise": 65081,
  "Ġtrade": 6696,
  "èµ¢": 120721,
  "Ġbounding": 31718,
  "KeyPressed": 70420,
  "Named": 16187,
  "ĉnode": 21498,
  "ĠsÄ±": 101872,
  "ĠWHETHER": 18114,
  "Ġtedious": 66838,
  "Ġppt": 78584,
  "onen": 43028,
  "wall": 16836,
  "walk": 19599,
  "ÑĪÐ¸Ð»Ð¸": 120652,
  "ĠâĨĲ": 48564,
  "Ġscreen": 4264,
  "Ó": 143,
  "ì¶©": 112037,
  "_reduction": 75389,
  ".fromJson": 32975,
  "ÑĥÐ»ÑĮ": 100899,
  "æĶĿ": 124945,
  "ĠPen": 13597,
  "icho": 78215,
  "ĠtÃ£o": 96772,
  "Ġreceives": 21879,
  "tring": 563,
  "_heading": 48342,
  "Ġproceso": 50109,
  "çľģ": 66870,
  "(sol": 81708,
  "Ġconsolid": 28230,
  "uhan": 70986,
  "è®©æĪĳ": 126997,
  "ÙĥÙĬØ©": 120735,
  "/]": 75077,
  "ĠScholars": 99394,
  "odore": 68565,
  "ĠNez": 127701,
  "Ġintval": 27310,
  "}\")]Ċ": 45765,
  "Ġmemo": 22154,
  "ÂĪ": 116293,
  "Ġrsa": 69670,
  "è§Ĥçľĭ": 107431,
  "Ġreporters": 19578,
  "Ġinequality": 32305,
  "adaptive": 42662,
  "lash": 25713,
  "reative": 87466,
  "-vis": 82489,
  "à¥īà¤®": 121005,
  "\"?": 44969,
  "KhÃ´ng": 116305,
  "-Muslim": 62505,
  "ĠTwitch": 51901,
  "Ġhesab": 121841,
  "ĠÙħÛĮÙĦ": 111515,
  "ĠocksÃ¥": 88416,
  "Ġcheckpoints": 68309,
  "Ġvalores": 37252,
  "Ġonset": 42080,
  "Ġ---": 12730,
  ".ribbon": 75043,
  "ĠStrength": 32937,
  "ãĤĩ": 103701,
  "Ġà¸ĩà¸²à¸Ļ": 121351,
  "'im": 98279,
  "-found": 27802,
  "æŃ£å¸¸": 120870,
  "hari": 77007,
  ".minute": 67319,
  "]!=": 38007,
  "Ã¶y": 100774,
  "ĠNearby": 96648,
  "Ġrecoil": 74422,
  "Ġtoxic": 21503,
  "ĠëĤ´ìļ©": 109842,
  "Ġdisaster": 21426,
  "activex": 37331,
  "ëĭĪê¹Į": 106744,
  ".attributes": 27232,
  "Ġleben": 98972,
  "Ġankles": 90713,
  "ponder": 20949,
  "Ġadequate": 26613,
  "Ġuniforms": 45233,
  "Ġç©º": 113992,
  "_cate": 93149,
  "Ġaluminum": 25674,
  "Ġincarnation": 80048,
  "Ġruby": 46307,
  "Ġhired": 22163,
  "Ð½ÐµÐ½Ð¸Ñı": 110312,
  "ĠÙħÚ©": 108809,
  "ASSWORD": 16738,
  "niÄįnÃŃ": 127261,
  "currency": 16353,
  "Ġmercury": 51852,
  "ĉff": 68499,
  "uÅ¾el": 127747,
  "ĉĉčĊ": 6336,
  "JA": 45280,
  "ÑĸÐ»Ð»Ñı": 125376,
  "ĠSimpleName": 41899,
  ".ylim": 77835,
  "(||": 80553,
  "dives": 91614,
  "ÂłKÄį": 127752,
  "PLIC": 37535,
  "universal": 96400,
  "Ġmultif": 62387,
  ")]);Ċ": 43058,
  "Ġ**": 3146,
  "Ġfunctionalities": 93180,
  "different": 64750,
  "Ġpas": 6502,
  "307": 14777,
  "Ġusers": 3932,
  "ĠFellowship": 65742,
  "Ġ.": 662,
  "ĠÄĳÃ¡": 108972,
  "éĩĮéĿ¢": 126677,
  "Kevin": 48781,
  "ĠÐ½Ð°Ð»": 104750,
  "+A": 93580,
  "ĠOPS": 83955,
  "Ġ\"\\\\\"": 70037,
  "ikan": 23014,
  "edo": 66981,
  "ĠTODAY": 41362,
  "661": 24132,
  "Ġirrig": 53105,
  "egree": 27874,
  "opard": 33029,
  "ëĭĪëĭ¤": 22720,
  "Ġcomposite": 28814,
  "ĠSistema": 77354,
  "ĠIran": 10471,
  "(exp": 26950,
  "NodeType": 67237,
  "ÑģÑĤÐ¾ÑĢÐ¸Ñı": 118755,
  "unts": 38040,
  "Ġglitches": 97480,
  "animals": 77896,
  "enÃŃm": 107048,
  "ĠUzbek": 90959,
  "Ġfade": 15366,
  "ĠmÄĽsÃŃce": 127044,
  "Ġhava": 113297,
  "QRSTUVWXYZ": 73750,
  "district": 36491,
  "anked": 41872,
  "Ġafterward": 49043,
  "ĠÐ´Ð¾ÐºÑĥÐ¼ÐµÐ½ÑĤÑĸÐ²": 123027,
  "Ġasn": 76352,
  "Understanding": 71251,
  "ÑĩÐµÑģÐºÐ¾Ð¹": 111064,
  "tainment": 121705,
  "urther": 4004,
  "Ġbattle": 8209,
  "ĠbenÃ¶t": 92404,
  "ëĵ±ë¡Ŀ": 108216,
  "nÃ¡m": 120061,
  "ĠÑĩÐ°ÑģÑĤÐ¾": 105930,
  "Ġ>\",": 83976,
  "Î²Î±": 105179,
  "Ġadorable": 41708,
  "_OID": 97384,
  "dll": 68259,
  "entine": 27970,
  "_gs": 98030,
  "ĠUIStoryboard": 93042,
  "Bu": 60908,
  "ĠJAVA": 86660,
  "Ġä¸": 106181,
  "II": 5660,
  "afil": 44062,
  "ĠuserService": 31762,
  "Ġcharitable": 48801,
  "Ã¡ndez": 78146,
  "ElementsByTagName": 62389,
  "ynom": 62220,
  "ĠMarathon": 51273,
  "ĠÐ²Ð¾Ð·ÑĢÐ°ÑģÑĤÐ°": 126458,
  "FACE": 20342,
  "\"},\"": 59740,
  "apo": 66652,
  "è¨Ńå®ļ": 116700,
  "ãĥĺ": 108768,
  "wij": 87183,
  "áº¡y": 105277,
  "ĠRehab": 61479,
  "ĠãĢĪ": 109487,
  "ĠBA": 34589,
  "åŃĻ": 123177,
  "ĠHydraulic": 81104,
  ".eval": 32810,
  "luÄŁu": 110084,
  "onnen": 99203,
  "Ġasynchronous": 40107,
  "-------------Ċ": 66910,
  "ĠÙħØ´ØªØ±": 114180,
  "ĠFeedback": 37957,
  ".scheduler": 70213,
  "see": 4151,
  "lerle": 105620,
  ":^(": 20896,
  "Ġrom": 10083,
  "Ġháº¡i": 110576,
  "#create": 79137,
  ".alignment": 97888,
  "æĿĥéĻĲ": 92056,
  "Ġspas": 83060,
  "nÃŃho": 101215,
  "Ġcass": 45324,
  "ÑıÐ±ÑĢÑı": 109619,
  "\",&": 18313,
  "_ends": 91829,
  "(theta": 29078,
  "ikut": 90094,
  "enerated": 10766,
  "Ð»ÐµÐ½Ð¸Ñİ": 115167,
  "ÑĪÑĮ": 105008,
  "Ġdokon": 107245,
  "Fee": 43041,
  "arga": 18405,
  "unun": 101294,
  "ĉĠĠĠĠĠĠĠĠĠĠĠĠĠĠĠĠĠĠĠĠĠĠĠ": 51540,
  "Ġextremes": 69971,
  "Ġone": 832,
  "à¤¾à¤ķà¤°": 107334,
  "Ġmonks": 66477,
  "ĉCopyright": 60756,
  "ĉonClick": 92474,
  "ĠUnit": 8113,
  "ĉactive": 75870,
  "Ġriver": 15140,
  "Ġtisk": 125912,
  "ĠØ¨Ø§ÙĦØ¥": 122927,
  ".Env": 82314,
  "Fc": 48430,
  "Protected": 68015,
  "<a": 9496,
  "lobber": 92497,
  "Ġï¿½ï¿½ï¿½ï¿½": 60730,
  "Ġxpath": 65625,
  "ĉLocal": 83504,
  "Ġshook": 36014,
  "ĠGarrison": 99586,
  "ĠÐ¶Ð¸ÑĤ": 102979,
  "ĠSEQ": 72508,
  "ĠMush": 59205,
  "ircon": 89376,
  ".replace": 7125,
  "æºĲ": 39084,
  ".tagName": 58115,
  "Ġ?:": 28356,
  "Ġæµ": 99413,
  "pic": 15959,
  "à¸µà¸Ĭ": 111289,
  "ãģ¨ãģĵãĤį": 110229,
  "Ġkhá»ķ": 123608,
  "uzzi": 79571,
  "arking": 34552,
  "IVAL": 91593,
  "éłĨ": 110480,
  "Ð±Ð¾Ð»": 112094,
  "ĠchÆ°Æ¡ng": 107413,
  "ĠSerial": 11464,
  "ĠMajority": 55135,
  "tec": 55300,
  "-loaded": 79170,
  "gies": 68469,
  "Ev": 35212,
  "ĠUnc": 29879,
  "ĠodpovÄĽd": 124279,
  "à¤¸à¤²": 115125,
  "ĉĉĉĉĉĉĉĉĉ": 5516,
  "Ġká»ĥ": 107976,
  "à¹ģà¸ªà¸ĩ": 124806,
  "Ġblinked": 100132,
  "ĠisValid": 27263,
  "ĠâĢ¦": 4696,
  "ĠNOTES": 71046,
  "Ø«Ø§Ø±": 110652,
  "ĠnameLabel": 97208,
  "ä»Ĭå¤©": 110916,
  "Ġld": 27221,
  ";o": 94549,
  "appId": 75929,
  "ĠBoulder": 56743,
  ".look": 74134,
  "Wildcard": 94088,
  "buah": 87561,
  "ĠWX": 78541,
  "Ġcav": 57709,
  "Ġguise": 84163,
  "ĠReliable": 92663,
  "Ġê¹": 101413,
  "Ġà¸¨à¸£": 127393,
  "LogFile": 99957,
  "ĠDifference": 56180,
  "æĬ½": 116602,
  "ungal": 58267,
  "ÑĨÐ¸ÐºÐ»Ð¾Ð¿ÐµÐ´": 124504,
  "ĠÐ¿ÐµÑĢÐµÑĢ": 120627,
  "ÑĢÑĥÐ±": 113256,
  "Ġnecessities": 76500,
  "ĠWedding": 31917,
  "Ġstiffness": 70334,
  "ĠInn": 17382,
  "Ġtouch": 5916,
  "¹Ħ": 47382,
  "-pro": 10039,
  "Ġhos": 68927,
  "Ġscoring": 20413,
  "Ġbreaches": 69140,
  "Ø£Ø©": 113308,
  ")item": 80653,
  "ĠINTER": 30442,
  "-eslint": 56275,
  "Methods": 18337,
  "ĠBRAND": 91054,
  "ĠUIStoryboardSegue": 70260,
  "FOX": 93756,
  "íķĺë©´": 108302,
  "ĠPikachu": 98019,
  "è¦ģæ±Ĥ": 105318,
  "...čĊ": 35929,
  "Ġcaution": 28930,
  "ĠÐ²ÑģÑĸÑħ": 111650,
  "ĠinformaciÃ³n": 35615,
  "ĠÙģØ§ØµÙĦÙĩ": 126971,
  "Ġcooling": 28015,
  "riting": 12479,
  "metic": 18474,
  "%C": 67690,
  "TEGR": 69103,
  "Ġclay": 37148,
  "azed": 28109,
  "<|reserved_special_token_78|>": 128086,
  "ĠÃ¶zellikle": 109252,
  "Ġpauses": 86932,
  "blue": 12481,
  "<Book": 59137,
  "Ġsum": 2694,
  "='./": 72493,
  "Ġverz": 74297,
  "ĠBatter": 74018,
  "ĠFloating": 48612,
  "Ġnackte": 63102,
  ".gs": 96668,
  ".resolution": 87531,
  "={[Ċ": 69321,
  "Ġsx": 32908,
  "posts": 12953,
  "ĠLinearGradient": 97592,
  "ĠDOJ": 61910,
  "ĠSprite": 22282,
  "(io": 38358,
  "ĠMake": 7557,
  ".v": 3211,
  "('?": 75645,
  "Ġkeinen": 81013,
  ".accept": 29662,
  "Ġtensorflow": 29187,
  "ĠØ§ÙĦÙĪØ·": 111611,
  "\\Contracts": 44418,
  "_regeneration": 75920,
  "))))": 26843,
  "Ð»Ð¸Ñĩ": 91216,
  "ĠÏī": 117774,
  "luent": 57167,
  "_pins": 91189,
  "ĠOpp": 29710,
  "ĠMystic": 89625,
  "_Client": 47202,
  "ÐµÐºÑģÐ¸": 122477,
  "broadcast": 55262,
  "Ġfundraiser": 59759,
  "ĠÐ¾ÑģÑĮ": 124930,
  "Mark": 9126,
  "ĠolacaktÄ±r": 112623,
  "ÂłS": 109269,
  ".integer": 28693,
  "ĠInkWell": 85940,
  "Ġcommunism": 71189,
  "ĠcÃłng": 107844,
  "Nova": 77869,
  "Ġåħ¶": 108264,
  "ĠPackage": 17333,
  "åħŃ": 103070,
  "_photos": 78568,
  "Nothing": 24714,
  "ï¼ĮæĽ´": 127773,
  "Ġconspir": 22236,
  "_LSB": 77899,
  "Ġdma": 51350,
  "ĠìĤ¬ë¬´": 124058,
  ".nc": 33058,
  "ĠProcessor": 44477,
  "ÎµÎ½Î¿Î´Î¿": 120660,
  "Ġbounced": 70904,
  "erase": 19206,
  "posted": 44182,
  "UTIL": 38069,
  "ĠHANDLE": 46373,
  "Ġsalaries": 37532,
  "Ġmidfield": 30789,
  "cran": 73085,
  "Ġdra": 45196,
  "(çģ«": 111911,
  "ĠLt": 42970,
  "Ġpok": 45295,
  "INGTON": 39649,
  "Ġpromise": 11471,
  "_CH": 6602,
  "ResponseType": 54488,
  "865": 24678,
  "Ġì¤Ģ": 108683,
  "Ġëª¨ëĵł": 107036,
  "*size": 81931,
  "à¸Īà¸°à¸¡": 115591,
  "gmail": 77309,
  "_loc": 13705,
  "Ġopenssl": 81833,
  "Ġë¦¬ê·¸": 124313,
  "ĠLÃ¶s": 90552,
  "eee": 35163,
  "Ġ),Ċ": 2907,
  "Ġexpressive": 78223,
  "Ġbursts": 66801,
  "à¸±à¸Ļà¸ģ": 115866,
  "íĴį": 116942,
  "Ġwaters": 21160,
  ".hasNext": 23652,
  "cat": 4719,
  "belief": 60876,
  "Ġexplor": 48539,
  "dÄĽla": 123668,
  "008": 11436,
  "ĠXT": 62966,
  "Ġinnings": 36100,
  "WORD": 7375,
  "aysia": 59185,
  "Ġgrains": 41936,
  "Ġsmiles": 43632,
  "Ġ[])": 43282,
  "'=>['": 89992,
  "Ġacknow": 12125,
  "Ġestablishes": 64664,
  "987": 22207,
  "ĠSanayi": 124836,
  "Æ": 130,
  "ĠBian": 68045,
  "æĿĢ": 108886,
  "en": 268,
  "ĠNice": 29959,
  "ĠAccum": 80625,
  "ï¼īĊĊ": 28966,
  "ĠSC": 7683,
  "pdf": 12091,
  "toDate": 80559,
  "second": 5686,
  "ĠlÆ°u": 105438,
  ".emit": 17232,
  "ĠCLEAR": 56319,
  "fiction": 58162,
  ">')Ċ": 40966,
  "Ġanalyzer": 55760,
  "Ġdecreases": 43154,
  "burn": 22464,
  "ĠSEX": 74587,
  "Ð½Ð¾Ñĩ": 110636,
  "Ġelo": 64235,
  "ĠìĦľ": 90960,
  "ĠManufacturer": 35551,
  "ÏĥÏĦÎ®": 107503,
  "à¸µà¸¥": 114013,
  "ìĪĺ": 24140,
  "Ġsurgical": 34933,
  "Ð»Ð¾Ðº": 105449,
  "Ġbroad": 7353,
  ".......": 49711,
  "ÐµÑģÑĤÐ²Ð¾": 52744,
  "Ġporter": 88286,
  "ÐµÐ½Ð½Ð¾Ð³Ð¾": 107148,
  "Ġfucking": 17668,
  "Roger": 79525,
  "Ġheroes": 23757,
  "ĠÐ¾ÑģÐ½Ð¾Ð²": 101554,
  "á¹": 126058,
  "Ġdecryption": 90474,
  "Ġrobotics": 74706,
  "ĠÑĢÐ¾Ð·Ðº": 124737,
  "lettes": 66692,
  "ÙħÙĦØ©": 126358,
  "Ġiki": 102550,
  "ILES": 47078,
  "-choice": 63726,
  "(site": 48594,
  "_tim": 30187,
  "ĠplayerName": 84647,
  "Ġintim": 22713,
  "(rp": 97070,
  "\"<?": 61447,
  "áº©u": 93877,
  "_checks": 76897,
  "(tk": 86060,
  "boxes": 22995,
  "quete": 61454,
  "ĠLINEAR": 122154,
  "ĠíĪ¬": 107896,
  ".addData": 88809,
  "oÄŁu": 108534,
  "Ġrichness": 90030,
  "Ġsurrendered": 71044,
  "æľĭ": 109812,
  "inspace": 31413,
  "ĠWell": 8489,
  "&oacute": 84383,
  "ÙĦÛĮ": 100377,
  "iquÃ©": 76366,
  "ĠPopular": 32495,
  "Ġwager": 56443,
  "Bill": 28576,
  "presentation": 45025,
  "ĠMold": 55263,
  "ĠSAND": 98341,
  "chester": 15163,
  "ĉmake": 78538,
  "_modified": 38849,
  "Ġphilosoph": 13868,
  "_battery": 83030,
  "volution": 65272,
  "@property": 7149,
  "á»©t": 117575,
[...]
